/**
  ******************************************************************************
  * @file    network_data_params.c
  * @author  AST Embedded Analytics Research Platform
  * @date    2026-01-14T16:06:27+0800
  * @brief   AI Tool Automatic Code Generator for Embedded NN computing
  ******************************************************************************
  * Copyright (c) 2026 STMicroelectronics.
  * All rights reserved.
  *
  * This software is licensed under terms that can be found in the LICENSE file
  * in the root directory of this software component.
  * If no LICENSE file comes with this software, it is provided AS-IS.
  ******************************************************************************
  */

#include "network_data_params.h"


/**  Activations Section  ****************************************************/
ai_handle g_network_activations_table[1 + 2] = {
  AI_HANDLE_PTR(AI_MAGIC_MARKER),
  AI_HANDLE_PTR(NULL),
  AI_HANDLE_PTR(AI_MAGIC_MARKER),
};




/**  Weights Section  ********************************************************/
AI_ALIGNED(32)
const ai_u64 s_network_weights_array_u64[105694] = {
  0x3e1580b03dce97fcU, 0x3e8a5e0d3dbc9e31U, 0x3f08850f3e901ac1U, 0x3edd42d73f352d34U,
  0x3c7d6a0aU, 0xbe9075bfbec2aee0U, 0x3ee262243ec20cbdU, 0xbe47e819be160dbdU,
  0xbea5bd193e3a457bU, 0x3ed77f093e903e07U, 0xbe196dc83e7ddf45U, 0xbe10ed8d3ed6e4c5U,
  0x3f5e8428be91aa06U, 0x3e84c1e53e015bd6U, 0x3e26bce33ec1e51fU, 0x3d319b03bda9915cU,
  0x3d82fac6bd3c40d5U, 0x3ed7d8243e3f8d0bU, 0x3eaeb6123e867ce2U, 0x3e5877263e8bc874U,
  0x3f04acc93d477c70U, 0xbdcf55ddbde3a82bU, 0xbe42b4023dfb5cd4U, 0x3e8217b33db1a4a4U,
  0x3e6f5bd63e286658U, 0x3cd56750bdacb8ceU, 0xbe9eb76c3d4f702bU, 0x3e2280d6bdaff5fdU,
  0xbe429d9d3e3bc1f5U, 0x3cf5d1723e042c87U, 0xbd9b3bc3be8b5a16U, 0x3e00319fbdc5d9a5U,
  0xbb0be1cb3e613be4U, 0xbe2a2c663e593642U, 0x3dabd7dd3d418cbdU, 0xbc62d12abe2a3cd2U,
  0xbe1f1c283d153de3U, 0x3dd6d9c5be26b26aU, 0xbe2fca6bbe782929U, 0x3e12e7aabcf78c4cU,
  0x3dfd67343cf32c4bU, 0x3d25c9eebd3f4470U, 0xbdca454dbdd4c9b0U, 0x3dd619743d13ba5dU,
  0xbc7cbc183d6cf061U, 0xbdbed5f53da4df67U, 0x3d07fdfc3dec7806U, 0x3d7de6a83de1d46fU,
  0xbe2f9099be8ba83bU, 0xbe2d625d3de56960U, 0xbc3868fcbd826745U, 0xbe20c5dd3e3e8e7cU,
  0xbd1ed60c3d6e7836U, 0xbe2354443d1413dfU, 0x3dd9fb5b3ca97cf9U, 0xbe7571ff3dd26f0eU,
  0x3e5c649a3d79b06dU, 0xbdb536f43e587ffbU, 0x3da85bd33bfad3ccU, 0xbdde99ecbe8c9f11U,
  0xbd56d01abe5505e3U, 0x3d87118f3df1e343U, 0x3b091058bebd36a2U, 0xbe051051be057b46U,
  0x3bb254b13ee8ffb6U, 0xbb520959bc4fc7a5U, 0xbcb87da2bc4c4673U, 0xbddb5a653eeb62b9U,
  0xbe5953d1bd88f12aU, 0x3e0e5c363d7c8ab4U, 0x3e3116e63dbac787U, 0x3de110e23b8d3b3cU,
  0xbe8aea5e3df3b05cU, 0x3dea6b0abe73b8afU, 0xbe8c189e3e4f4a67U, 0xbd62baaf3e465268U,
  0x3e2dbbebbe1b8274U, 0x3e8f1936bdb2e1f4U, 0xbd1ce8873e514214U, 0x3e31fdd23d907646U,
  0x3e14e857be4e495cU, 0x3e6a90e6bd1f996dU, 0xbd875d183dc0fce4U, 0xbea54f383d4f1bc5U,
  0xbe2e507f3c94517cU, 0x3dfd41e2bd5295cdU, 0xbcedf90fbe3e34ebU, 0x3ce0f5ef3dc4db73U,
  0xbe627613bcda1181U, 0xbcba2346be2e05edU, 0xbe4fbbb5bdd16f5bU, 0x3e4c18f5be06946dU,
  0x3e963ea03e0416c1U, 0x0U, 0x0U, 0x0U,
  0x0U, 0x0U, 0x0U, 0x0U,
  0x0U, 0xbd87d6ac3c80f3f3U, 0x3d9b6573be31db92U, 0xbe57bc033dd118e6U,
  0x3ea81497beac7585U, 0xbef6e052bee300d8U, 0x3e7f52ff3ca43d1bU, 0x3e67b4163c3138bdU,
  0x3ef845cbbe5b6191U, 0xbd7dda16bb9ad95aU, 0x3e6ee989be31f30fU, 0x3e9462b2bf146532U,
  0x3e5dcf08bda0fe62U, 0xbe8db75abd8cbe82U, 0x3d9cad063f0ef931U, 0xbe0ec9433e37b797U,
  0xbe9ccae43cec46c8U, 0xbd95ac70bec67237U, 0xbd9a36143f068197U, 0xbe3df03ebeccf2e2U,
  0xbe9906193f1740a0U, 0x3d1f5cd3beb8a077U, 0x3e1878993e50f670U, 0xbd3664bdbec37de5U,
  0xbe039032be24d513U, 0xbeda3080bf1b2671U, 0xbdbacc74be385d99U, 0xbe9b8b1d3b98bbfdU,
  0xbe11c3153f0c46eaU, 0x3e2a994abea0f543U, 0x3f1535ba3ee00ff1U, 0xbddd40b4be67fcf1U,
  0xbb00253bbd87f71aU, 0xbe90f3cd3e8e6129U, 0xbe4e1fd8bedd7fadU, 0xbea2b3413e96587cU,
  0xbdb2bf483dc5bedfU, 0x3f2332ca3eb5335dU, 0x3c7692cbbdeca7beU, 0xbf0b9d59bd41fad3U,
  0x3db0499cbd89d894U, 0xbe0536f6bde69356U, 0x3e5b6d7c3e34a282U, 0xbf26e9823f2fea53U,
  0xbec9db403e387e0fU, 0x3ede3891bd8ae4a8U, 0xbee77fa7bf08b084U, 0x3e8fda883f04ebacU,
  0xbdbee2a6be1162c0U, 0xbdb816b73f11c0b8U, 0x3d7b7ae73e8c64b5U, 0xbce5c4d3bd867174U,
  0xbe8820fabcc9d30bU, 0xbe07d649bef670e6U, 0xbd61fc2e3e5daf58U, 0x3ee629a3bdaa9f18U,
  0x3ed5beb03e7703e4U, 0xbe7ad1ecbd3e4c25U, 0xbf09fa54bd17b6b7U, 0xbe6b619abedd041cU,
  0x3ead4e31be3d0f0fU, 0xbdd7b12fbe53817fU, 0x3e0708e2bec9a750U, 0x3eca43a3bc8308b6U,
  0x3e8a8b3cbf26dcd8U, 0x3dd73ecf3e0927f7U, 0x3f26e667bf4c3ffeU, 0x3e571f45bd954e0fU,
  0xbeb506063ddb6b3cU, 0xbe9922ee3e00271dU, 0xbe1d68243dcfea5dU, 0xbe11b4f2be73b70bU,
  0xbd74ca10be835b70U, 0x3eea5dd83e1a50f5U, 0x3f3e866a3e903445U, 0xbcbf9c113d74fef8U,
  0x3ed20f2f3e0525e9U, 0xbe276c4fbf00dcd9U, 0x3e81b9c3bd59ef92U, 0x3e12499cbc5526f0U,
  0x3e8d79d53f49e33eU, 0xbe5f39dabeda3a6bU, 0x3ebda22b3da14484U, 0xbe83147a3ddc5559U,
  0xbf1922b3bc2e0608U, 0x3ec1496dbf334aeeU, 0x3e9b3963bf127594U, 0xbe81220e3eb7a812U,
  0xbe66b53f3dd708c6U, 0xbf0c0578be81be07U, 0xbe677ae7bd326698U, 0x3ec0a9413e2ebbbdU,
  0xbf29554a3e0860cbU, 0xbe0edcd8bd7f9822U, 0x3ebb15d6bb56ca5aU, 0x3d7625a3beba484fU,
  0xbcfb1e233e80c724U, 0x3ee79a873e1df09dU, 0x3dd636e53d83159eU, 0xbd7e28773daf4379U,
  0x3c2d7d323f07661dU, 0xbd3589b83e7608dcU, 0x3e0622a83f4fe8b2U, 0xbe7d408cbe1f59c2U,
  0xbf0880173d5c1850U, 0xbe2fd0073ee8286bU, 0x3e6eabde3eac824eU, 0x3c9a9a27bee971f4U,
  0xbe925ef13ddaf75cU, 0xbf1147903e5969deU, 0x3da36849bf31ca97U, 0x3f18e60abe3055adU,
  0xbd91c8d3bd9e0e71U, 0xbe05b608beb633d0U, 0xbe8ef893be635250U, 0xbc28063e3e27e5e6U,
  0xbe2c1c43bc40dff9U, 0x3f1020a33e828c75U, 0x3df464dcbd849f92U, 0xbdbe1e76be8243a6U,
  0x3e41e2c03c74db6eU, 0x3e82162dbd8cd86eU, 0x3be3fcea3e5ef9f8U, 0xbd85b8d83c0a3445U,
  0x3e6153b4be09ec83U, 0x3d7a27b23f617c1aU, 0xbe97359cbe17f0a7U, 0x3e92aba5bca4ac74U,
  0x3dfe33e4be2e6097U, 0xbe6c9fcf3e6e8a4dU, 0x3e820ce9bc98bdceU, 0x3e977338bee2a51bU,
  0xbe94120ebd92abd4U, 0x3e9cd8e4bd60963dU, 0x3f04cd813dd287caU, 0x3f0901f83ea2052dU,
  0x3db6809abe0ffb91U, 0xbeb4396d3ebdb203U, 0xbf227a89bd7768d9U, 0xbed5583c3e276d07U,
  0xbebff2e03e8864fbU, 0xbe3a88ca3e52395bU, 0x3e44e27d3e160855U, 0xbf2b479f3f071245U,
  0xbe64ef103f041a5aU, 0x3ec275a7bdd73d6fU, 0xbd71acfc3ed5170fU, 0xbcd1c39f3e56cae8U,
  0x3e84a682bdb8e621U, 0xbdb0713e3cf0605eU, 0xbdf194ac3d4c3572U, 0x3d483e26bd4571ebU,
  0x3ead508bbce8a725U, 0x3e550400be709899U, 0xbea116243e9b6c6aU, 0x3dc3e06c3cf15d87U,
  0x3d12dd303ee2ab92U, 0xbed5b198bee6fe9fU, 0x3eb68f9c3e891ee4U, 0xbee82d87bec9969cU,
  0x3cf7350a3ec75172U, 0xbc992fc73ed716edU, 0x3f209c743e8c30a4U, 0x3dde2a48beb7dd47U,
  0xbeeab1253f902a56U, 0x3eb0e87f3e05a2afU, 0x3e384a22bcbc427fU, 0x3dd7412f3eabc6c8U,
  0x3e7c170039ef9d94U, 0x3f0df57d3e88fae8U, 0xbddd3eb9be1de5b8U, 0xbdc2aed63e3bac49U,
  0xbd9cc681bd9a3d30U, 0x3bf6932a3f1cae39U, 0x3eae8c3ebdb51346U, 0xbe0c2bfbbeaff0efU,
  0x3dda1357be212675U, 0x3ee49e4c3ec83d64U, 0x3db078d3beae0f9fU, 0x3d1b5c05bec66fa8U,
  0xbdb575643c6e1328U, 0xbe247991be0809e4U, 0xbef5f7da3efcff17U, 0x3ea392c2be92d699U,
  0x3e995d5b3e295761U, 0x3ca897d0be5a0d7bU, 0xbf0e113f3f0f641bU, 0xbe8b70df3e2d19a3U,
  0xbe34eb9f3be4cce1U, 0xbe51eded3e954b1eU, 0x3ee2c47f3d89ddb2U, 0x3e4ceb703e9f3ed9U,
  0xbe168e55bdd2aafcU, 0xbd09b824bd6d1ba1U, 0x3cc2aeb23d77dc7cU, 0x3c21e2d7bd70defcU,
  0xbd1b930abda333e4U, 0xbb09a63c3d26418eU, 0x3bbd672f3d4a2ae4U, 0xbd0aa01fbc6a5c50U,
  0xbd347b033d2336e5U, 0x3e89b2f33ccbda4aU, 0xbd32d10a3cf93db5U, 0xbcfafa02bd24bdf9U,
  0x3da99942bdcc0123U, 0x3e3cea7d3e3207deU, 0x3e4076973d65edbeU, 0x3c96153a3d673f91U,
  0xbd49441f3c2eeb45U, 0xbd6385013bc3667eU, 0x3e04f9353d4b8040U, 0x3d312f433e03562eU,
  0xbcb4788cbe892ef2U, 0xbe2cf2a3bdd2ecffU, 0xbc35b362bd5bb0d2U, 0x3daaa7d73e44ebafU,
  0xbdd2f9ae3cced07dU, 0xbd9bc45cbddff8b9U, 0x3e0cf613bdb28009U, 0xbd8b609c3de7979cU,
  0x3dddada1be5c892eU, 0xbe6119bf3e19b5cfU, 0x3df71a6ebdb12aa8U, 0xbd9aa1f63d0feafbU,
  0xbce027dfbe01ebc2U, 0x3cad06eebda8f37aU, 0x3e8db755bde9c68aU, 0xbd9814443e95bc64U,
  0xbd3acd40bdbd0509U, 0xbdee9a7d3c7125a5U, 0x3dabdae13d3a44c2U, 0xbeb68744bd888105U,
  0x3a592a1abc894d72U, 0x3e5108973df58ac4U, 0x3c6c1fea3e62e556U, 0xbc050824be3a5d2aU,
  0x3d83ef02be429474U, 0x3cf43595bda64accU, 0x3b3d9b40bdf327fcU, 0x3dded5eb3e0ffc84U,
  0xbd3f1604be09d46dU, 0xbd3e3347be4ac811U, 0x3d85bb82be349c23U, 0x3cb635ff3de2b688U,
  0x3db23655bde22432U, 0xbe11ebe13a364accU, 0xbd151ec53ccfc040U, 0xbcb8bfa4be76f7b5U,
  0x3ea5c56abd6e45c9U, 0xbe0beb713e75e99aU, 0xbe250f113e227f1aU, 0x3eb3a61abdfe99dbU,
  0x3dc1b7debe027546U, 0xbd8a5b3b3d21aa6cU, 0xbe282b273e79d8d7U, 0xbe66db98be8ef9faU,
  0x3d18d8343e6b5974U, 0x3da2ff673e478423U, 0x3dc518d13d751a68U, 0xbd048578bd60b40dU,
  0x3e01fee9be3de288U, 0xbda88d343d2ef72bU, 0xbe09d2bf3dad3da5U, 0xbd4dfc11bba563e9U,
  0x3dfc46f5bdd1932dU, 0xbea77098bdd64714U, 0x3e79e30ebe57d093U, 0xbd4a38e33e11bd3dU,
  0x3c56049e3e10a084U, 0x3e70e6723e394ef0U, 0xba81500dbe1a5d82U, 0x3dc9c84f3d8af51cU,
  0x3de7e91b3dc4872aU, 0xbda982e63e144a19U, 0xbc467e5a3e376153U, 0x3dfa200dbe14fcd8U,
  0xbdee63f4bd8b4a93U, 0xbdb20f94bd800552U, 0xbd048894bc94df68U, 0x3e0040453e4638c2U,
  0x3e4f01013d55a0c9U, 0xbe2de5ee3d8ee44bU, 0xbe33a2b63e012748U, 0x3de88f123e0f925aU,
  0xbe1db9193d9cbbb1U, 0x3e37a32fbe23b5a2U, 0xbbead49a3d697f79U, 0xbe2e5f463d9e5439U,
  0x3d9a6dd23ddf041eU, 0x3d4af10d3da7e6c2U, 0x3e2485f83e86c2b4U, 0x3df69ac83c824205U,
  0xbe0d7ce7be42093fU, 0xbded8025be00c5a7U, 0x3e1b0978bd41fc28U, 0xbd0f5f283d029b43U,
  0xbd6ca5843e6a6ae2U, 0xbe0fbec43e2c4549U, 0xbe2fb2ed3d630752U, 0xbd9cd85dbe1f456dU,
  0xbd9b119ebc759ccaU, 0x3d88a5b9be0a3ecdU, 0xbe1762c33e63c595U, 0x3e3b244dbe33d353U,
  0xbd5b628cbb3e5195U, 0xbe8fc94c3e9a06ffU, 0x3e9b679cbde4bf04U, 0xbccd1ed0be4d553dU,
  0xbe121c183def2c20U, 0x3e448c023d1af115U, 0x3bb70d5cbc95db41U, 0x3d89d306bde2fca6U,
  0x3daa1fefbd2179bfU, 0x0U, 0x0U, 0x0U,
  0x0U, 0x0U, 0x0U, 0x0U,
  0x0U, 0x0U, 0x0U, 0x0U,
  0x0U, 0x3dfbfead3d8ce747U, 0x3d583277be3b664dU, 0xbd2ffe163de934c1U,
  0x3d26242d3e67c410U, 0xbdca96f9beb819baU, 0x3e55e441becb6b95U, 0xbcae05f8be02042fU,
  0xbe8183abbe9c5dd5U, 0xbe25cb1ebc69884fU, 0x3e625ab93e54f722U, 0xbc9a702abe9da432U,
  0x3e2ad631bec3da51U, 0xbe46b7e1becaf9edU, 0x3e1f5cc53f329c19U, 0x3ec30173bee694eeU,
  0x3ea4ae4ebf3b02c6U, 0xbf0250be3cc2b566U, 0x3dd7dc203f086409U, 0x3e6bb56e3e69a407U,
  0x3e8aaa5dbccac7a0U, 0x3e155769bd94b3e4U, 0x3e18c6cebdd7767cU, 0x3d984ae13eb73742U,
  0x3e53f792be9eadf2U, 0xbdc649853bc58983U, 0xbe3a394b3e8d889dU, 0x3ecf7bdabf010e3aU,
  0xbe30e0503ea222f3U, 0x3ed16b003e83fa31U, 0xbe110bf3bb97aeedU, 0x3ec58e653f16f975U,
  0x3e94db673d75ec11U, 0x3f077b20bdb3d462U, 0xbdba649e3df452fdU, 0x3e9740dbbd9360c9U,
  0xbee260fc3c95eec5U, 0x3ed7e740bebbbfc6U, 0x3d60cbe3be2017b1U, 0x3ddc00753d2940e8U,
  0xbd04fbfabdbca584U, 0xbec4c623bea29cc6U, 0x3f39151abe9e9b38U, 0x3ee523863f16aae8U,
  0x3d8104bc3ebd0f36U, 0x3dd304993e91087dU, 0x3e31e85fbf1165d2U, 0xbed643e63dcf71d4U,
  0xbe74024e3dbc031fU, 0x3d466530bafd8d0aU, 0x3e5734063cb8cfc7U, 0xbe2f5b833e6db043U,
  0x3e609fa43e41de10U, 0x3e2e286b3e368322U, 0xbeb8a502bef492b1U, 0xbe8b03ae3ef37b8aU,
  0xbe0fdc4ebe7f1b83U, 0xbed6dcd33d98d364U, 0x3f09a9643e3291d0U, 0x3de93e15be9b867aU,
  0x3e9197f2bdbb6f85U, 0x3e7eb05b3e987140U, 0x3d03c2a03f123561U, 0xbe905376bc0a26edU,
  0xbe1c7273bc8f522fU, 0x3d04e9febf06a9cdU, 0x3f5193b2becc7dc6U, 0x3f6677f3be623467U,
  0xbd3cf9bebe22e65bU, 0xbd9029c83cbf423cU, 0x3e5b7e393c809c31U, 0x3e4afb26bed43bd5U,
  0xbe730b863dee82e3U, 0x3cc97251be42e30eU, 0xbeac63ef3ed8db89U, 0x3e4c84e0be8040d2U,
  0xbe856f64bda88d31U, 0xbe38ed743cfad526U, 0xbdaca0e1bee2b865U, 0xbcc718f8bc4c0397U,
  0x3dbff5e03db9caefU, 0xbd6af20b3c911b9cU, 0xbf0638a33d41e983U, 0x3d1a4c1cbd3bf2b5U,
  0xbd1502f23e8fd2e0U, 0x3e8ae500be01e7d1U, 0xbe45287f3b624d60U, 0x3ea361d9bf379cedU,
  0x3ebbefb4bc7ba9ecU, 0xbf21f4d0bd9d2924U, 0xbd4e8597bdd5e62cU, 0x3e4184ab3e699cf4U,
  0x3f3ef1013e5676baU, 0x3e90d1eb3d8f8dfaU, 0xbea5f10d3dad34c7U, 0xbe830cd4be48ec71U,
  0xbdbf33453cc9d243U, 0x3e8b8555be98461eU, 0xbe6fce4d3c486edcU, 0xbe78ddc5be554f1dU,
  0x3e9657333e31dc97U, 0x3e2883283e7fbcf3U, 0xbc6875e03e8cd31aU, 0x3edecbfabec4ae96U,
  0x3f2d8b6dbd4959faU, 0xbdecde813e8eaf4aU, 0x3de8f8473e5e307bU, 0x3e8548273ed3092aU,
  0xbe986d0a3f2b3f85U, 0x3bf3e56f3dd0d6f1U, 0x3ed2ae473e498a5eU, 0xbde738b9bdafbeabU,
  0xbeb7c698be13f73aU, 0x3ee0f1783bf25545U, 0x3c8173f73e1b8c4fU, 0x3f0ac8a63ed94492U,
  0x3dfd2777be2b1924U, 0x3ed26afdbb1f3a4dU, 0x3d878f59be891f2aU, 0xbd1f42f33e3b3338U,
  0x3d603b2fbe1a3a47U, 0x3dbd402a3e082d33U, 0x3e9ae014bed95468U, 0xbd6d90e93ea8b6aaU,
  0xbe1967a23e43924dU, 0xbec391b6bb8cc216U, 0xbe96fe2fbdc65bfaU, 0x3e8e607dbe332712U,
  0x3d4d9eb23d19b81cU, 0xbe2145cbbb669befU, 0x3e4cd83bbeed8ff5U, 0x3d8039273d1b40c3U,
  0x3dbf03b83ecee408U, 0xbebdc6e3bebb696dU, 0xbd2f6be2be87e366U, 0xbeca4d18beb39014U,
  0xbe956c21be4afbdcU, 0xbebfc48e3eba7447U, 0x3c7c1ea0bee1f203U, 0xbed3fa0d3e7a6d72U,
  0x3e53282abec97522U, 0xbda99b54bd65afa0U, 0xbea7b957bd0739c5U, 0xbe90c7903db24a03U,
  0xbe4f05503eea7050U, 0x3e3cc90fbead23f5U, 0xbe23c9b1be2ee155U, 0x3e8d04c13dc1db49U,
  0xbe434e4a3ee6d034U, 0x3f1a750fbe4b13a9U, 0xbdaac067be17275bU, 0xbe6140d73ef387d2U,
  0xbe064bf53ed92571U, 0x3e6b7e573e994a0fU, 0xbcf370f6be5e751cU, 0xbe7f79f4becefad3U,
  0xbcd24a90be4e02faU, 0xbe851500be88dd49U, 0x3f0958b1be805bbcU, 0x3e77ffcc3e400648U,
  0xbe32adac3ce2cb70U, 0x3e14860a3d87eb50U, 0xbed4e3f43e90f17eU, 0xbf2935033d8aa416U,
  0xbe2fbc44be3a1f5cU, 0xbec766683de6fbcdU, 0xbe8d662f3a699c65U, 0x3eebe3e43f132e9cU,
  0x3e7d4197bc6ddc76U, 0xbeb7c117be8eaa80U, 0xbea91f32bea4e13aU, 0xbea1cb483df291faU,
  0x3f08712e3c37b33eU, 0x3e42822b3ea02175U, 0x3e2bc2c1be4ce2f2U, 0x3ee876873dea35abU,
  0x3eb83cc4be84eed5U, 0x3de78619be43397cU, 0xbe9766fcbe66c6a0U, 0xbdd5495fbd94c6f9U,
  0xbeec94ddbe6dfc6bU, 0x3f15410cbd6d7db2U, 0x3d5a09733e5b1e83U, 0x3ebc7e0a3d311cf0U,
  0x3d6f693b3abe37bcU, 0xbef90c553da5f222U, 0x3e4c504abf232ae0U, 0xbca5f3f83db8a43fU,
  0x3ea3f1b43f1c7a71U, 0x3e8669b43e30e52fU, 0xbe799a43be20bde1U, 0x3ea727a5bf3ea64aU,
  0xbdf28aa6be8bf23cU, 0x3c18f3503e09b9d6U, 0x3e6302863e968e5bU, 0x3f00bcd4be4cd273U,
  0xbe9b5117be37eabfU, 0x3e434ed1be441cbbU, 0x3e8d00363d26b6b1U, 0xbf4e099f3e0bcc9aU,
  0x3e2ae3463d084ffdU, 0x3d99c4973e27f2a8U, 0x3e2d1ab53e53ccdaU, 0xbe84c2dbbe8c8317U,
  0x3e06bb62be8f36fdU, 0xbecb559ebebd2059U, 0x3ec0c1a73d6a5e6fU, 0x3eef17d7be6ecff3U,
  0x3db80230bedc5eedU, 0xbe3c3108bdf83826U, 0xbe1298c63da60589U, 0x3d7f3789be077c01U,
  0x3df320613c4d2126U, 0xbde23683be528173U, 0x3c56a02a3ece0372U, 0xbe8ec302bdc7ae90U,
  0xbec4a8ac3cc7a2edU, 0x3c681be1bee09da1U, 0xbe7eb2d93d2d345bU, 0xbe3a5cc53e4b427eU,
  0x3d92207b3e0af0edU, 0x3d2184533e0b7555U, 0x3e1dfe97bd25a002U, 0xbe82741d3e29d7b4U,
  0x3e8bef8f3d5b7ff2U, 0xbea7e5473df4fe74U, 0xbd8c7e37be16f818U, 0x3f0dc2e7be8598deU,
  0x3ed8060a3f2ede94U, 0x3ea014b83d9ffdc0U, 0x3db512bc3e580332U, 0x3ccbb9c9be48b112U,
  0xbe7431823c744825U, 0x3e159ffc3b2efa8bU, 0x3e564f4cbe2868c3U, 0x3f2935053d8bbc8aU,
  0x3e2202e23de23e7aU, 0xbe2a10313d2a6072U, 0xbcd812e53f13c870U, 0xbe0d94933ef7699bU,
  0x3ed7ce653eb041bbU, 0xbe1f7715bd01cb51U, 0xbe7ad137bdac8459U, 0xbdef17c1be66fa67U,
  0x3ed87e3ebe96025dU, 0x3eb97a9d3f1d8ed7U, 0xbf332fbbbe55075bU, 0x3ec42d233e20c880U,
  0xbe0889a63e8a3e8bU, 0x3ec7ebb2be951507U, 0xbe5af8aabe93e66aU, 0x3e84270ebdda9f3fU,
  0xbe9cce0c3f101db6U, 0x3e954922be981595U, 0xbef1d5db3e7d5485U, 0x3a1eb4953e02f2f3U,
  0xbe20fc863d9b61c3U, 0xbe1dc48ebd7e2f46U, 0x3efa2032beca273cU, 0xbda1d6b4bedb987cU,
  0xbebe0aba3e5bcabaU, 0xbdb072383e9421c7U, 0x3c242a5ebd822161U, 0xbd1b5488be8683beU,
  0xbe9b26633ebb382aU, 0x3ea56fa83ba819a1U, 0xbf0cd4ca3c6d7f84U, 0xbe1a81cdbe39a237U,
  0x3ebb80993eb3811aU, 0x3e4d59d6be8adb0cU, 0x3e937bfdbbf41dc5U, 0x3e76f08bbe5506c9U,
  0xbe3523e1bdc6dfc2U, 0xbc847d523ed9c0f9U, 0x3f1e75e43d63b0b5U, 0x3f061397be7ac968U,
  0xbe1c6b4a3ec29cfbU, 0x3d0c55c7bebee466U, 0x3ec37cf0be52344dU, 0x3e7752c43ee81075U,
  0xbee674283ded8f16U, 0xbe70b2303f309e38U, 0xbe5f0bdd3ea9843dU, 0x3b17de6d3ef25888U,
  0xbd964693be0db899U, 0xbddbee72bcb667f0U, 0x3eb4eef23db25085U, 0x3d2acb36be6e6e39U,
  0xbe5a09e13e9e746fU, 0xbe3b28eabd1413b3U, 0xbd30d5713d6b5b17U, 0x3eb9bd37bd3cb556U,
  0x3e3c5fd03d80c996U, 0x3d9089f2beb54404U, 0x3e2b7e0a3ebe3404U, 0x3e62be0a3e09b461U,
  0xbe429e7f3ea32539U, 0x3ec9d5f7bd270746U, 0x3e3905ffbf278b4bU, 0xba1725f1bd3e13fdU,
  0xbe88f379be2b01e8U, 0x3ed7afa3be841a39U, 0x3e2f0f01bd0459a9U, 0x38cc079f3e86d3d6U,
  0x3d67ac81bd40e9a1U, 0xbe44873e3e4987c4U, 0xbdb8cc983d96abc3U, 0x3e8c3b9b3f19ffaeU,
  0xbeee504e3e4900e3U, 0xb9216382be9364c2U, 0xbeef3af83dd96a3fU, 0x3e9eadbdbdd801bfU,
  0x3d55811dbe841c1dU, 0xbd6b8078be4ce1ceU, 0xbd9a93013e1383c1U, 0x3e1066133e2caf5aU,
  0xbea935aa3e8c371fU, 0xbdf097aebdf39c7dU, 0xbf0208f8bd913bd4U, 0x3d0176703d7d92ddU,
  0xbe7100c13db84533U, 0xbe868536be1b0fffU, 0x3eec24b43e838d4bU, 0xbee5d055bcd6524fU,
  0x3e06f4ebbf1e9fc3U, 0x3e2fc574be89468bU, 0x3d260d61bda56e02U, 0xbe3c15893c6c3fa4U,
  0xbeb6f10a3f25bccdU, 0xbf019ef3bda0f20aU, 0xbe98140dbdcdaa15U, 0xbe497ee93da39af0U,
  0xbf044800bc5e62f8U, 0x3cbd8c7d3d32008fU, 0x3df48a4cbe8bb61aU, 0xbf08e395bf11ba91U,
  0xbdf505b7be0b4ff2U, 0xbd6c04353e357436U, 0x3e31dee63e8b2e58U, 0x3ee843febe212cc9U,
  0x3e2d6a3a3e74fa6dU, 0x3e4cc49c3dbffca6U, 0xbe3d89f0bddfec80U, 0xbefc38643e7dc373U,
  0xbd587e20b99e68c3U, 0x3b870cb93ded12daU, 0x3ef655373ee37f8aU, 0xbe77ad1dbe93e1c5U,
  0xbea4ccee3eb18392U, 0xbe0f208dbeca4428U, 0x3eee3c37bdc7d22fU, 0xbd893f1dbe4f95a5U,
  0xbe83208d3e867cc6U, 0xbd188c023dc3342eU, 0x3e6ccd283e4ca5c6U, 0xbe3504c73f02a586U,
  0xbc7cbb46be5d3126U, 0x3ede6465be897462U, 0xbea297a5bf233d23U, 0xbd8860003dc2c77bU,
  0x3e27198abe751603U, 0x3e7950c03dc6eb18U, 0xbeb7a78ebe630655U, 0x3d4936bbbcf83a13U,
  0x3e939fd0be99be65U, 0xbf416f1dbe624b6aU, 0x3de7ef49bed1659aU, 0xbe0a0b5fbecddf27U,
  0x3e891020be521da4U, 0xbd2ef78a3cb2104fU, 0xbeb19e4b3d5691d0U, 0x3ceda9273d626efbU,
  0x3d5b1b97bd88def6U, 0xbc07ae403e41b55aU, 0x3dd47bf83dba3f09U, 0x3cf0ef293e975920U,
  0xbda3bd983ea77e38U, 0x3e66dde3bede3cf3U, 0xbe8a3f6bbecaba8dU, 0x3e6d87753ebb3905U,
  0xbc8cc5073e6578e5U, 0x3e2c766c3db35a29U, 0x3f0a10e9bd6c9390U, 0x3e28893a3d85e06bU,
  0xbe56b6dcbee2842eU, 0x3d25e3d1bc2cc36dU, 0x3d01ce673c4bbb13U, 0x3b88d1a2bc822b52U,
  0x3c8c1b53bba2abcfU, 0x3c5ea281bd38ae05U, 0x3b90497cbc93363dU, 0xbd36fa29bc31859fU,
  0xbcb0e3fc3c33480dU, 0x3a73a582bce779e0U, 0xbd0e2873bb1f7328U, 0xbce101463c94333cU,
  0xbd17486dbc7878e2U, 0xbce3029fbaead15bU, 0xbd0cee87bcefb292U, 0x3cbf82e5bcbd5203U,
  0xbc8e23a8bcc686edU, 0x3ccbaf433e288941U, 0x3d410e743e51ac60U, 0xbafed3a13dfbd4d9U,
  0x3d9066f13e17c00eU, 0x3de951c83e8ab120U, 0xbe3295513ea61b43U, 0x3e90fe48bcfe8cdcU,
  0xbee6c4533d609963U, 0xbe136c833c9d3ebbU, 0x3cf5e89a3dbccadbU, 0xbe375ee2beacd10fU,
  0xbe6ded993da35032U, 0x3d0bb9b3bec9ab84U, 0xbe0e437c39643612U, 0xbdc3249abe13eac2U,
  0x3cc672303b3c8968U, 0xbdfe08e4be15efe9U, 0x3d6af43a3b92f1dfU, 0xbb878ae4bd4d8e56U,
  0xbb11856a3ac5b701U, 0x3deca1583c83d770U, 0xbc1ec442bd6959baU, 0x3d66b5d8bd84e2b1U,
  0x3e1501c0bcf9330dU, 0xbdcc821bbc81920eU, 0x3d92aa2e3e2dbd93U, 0x3e006a2a3da97190U,
  0x3df17e723d68760cU, 0x3d4d820b3d1fd111U, 0xbe2cff0fbd124d6eU, 0xbe619a9abe5d33aaU,
  0x3df477453dd56c0eU, 0x3e19c54b3d8ba194U, 0xbd9dfab33d10c804U, 0x3b8d2f503cca0e51U,
  0xbd7e1dad3dbf2090U, 0xbe91fbf8bdb7a600U, 0x3e6aa9cd3e92c590U, 0x3ede65543b94d036U,
  0xbe17bc53bd061da6U, 0xbc225e5cbe90d5d8U, 0x3d9622013e59fa86U, 0x3e222e823e4a780eU,
  0xbe22bef53dac42a3U, 0x3dc9ce103ec5890cU, 0xbe8bafc2bd8abb4aU, 0xbdf4b4e93dd91780U,
  0xbd9021ca3eaccc47U, 0xbd6b00813e82b02cU, 0xbe8abf02bd772190U, 0x3e879834bd7cd1e3U,
  0x3da04b18be1307b7U, 0xbdc61ef43e33470bU, 0xbde27765be28b82cU, 0x3d4736493d9fe374U,
  0x3e210a723d5ea109U, 0x3e462a44be426264U, 0xbd9c444a3bf62119U, 0x3e781c92bc3db51aU,
  0x3d863cca3c9bbd9cU, 0x3d6e74a5bdc86d70U, 0x3de47e983ea2a794U, 0x3ce021a53d5e1486U,
  0x3e20a2b0bd7e0652U, 0xbd71ac183db40d4bU, 0xbe9bba8a3d75b498U, 0xbe4777e3bd555500U,
  0xbe4c0f9b3d17c55fU, 0xbd591b61be72df1eU, 0x3d72982e3da99732U, 0x3bc6a824be4e0ef0U,
  0xbea98266be79e948U, 0xbdc6df34be07a4bbU, 0x3b2a186fbe05e74bU, 0x3be386693dc5af34U,
  0x3ad8fe65be2c1f44U, 0x3c5520cebe76190dU, 0x3df56defbc7ce1cdU, 0xbdde3971bd7ef88bU,
  0xbd3c8548bb114212U, 0xbb6bda33be07ad50U, 0x3e4a207fbb50d520U, 0x3dd359713d44570dU,
  0x3dd995cf3ad2faf5U, 0xbe399455bd19e64aU, 0xbd8c762dbe91aac0U, 0xbdf0ce5f3db8658fU,
  0x3c9c2de43cb03d24U, 0x3e0a2a933b9b7c08U, 0x3e69ff78bea183acU, 0xbe1853823d8b8dddU,
  0xbb0e56033e67c9efU, 0x3db62b0cbd2b03bcU, 0x3d941c183bba296dU, 0x3e2c18cf3e0021e4U,
  0xbeafd934be21fc22U, 0x3dbcb9713e4c7915U, 0xbe3f10463eab7f1dU, 0x3d7c25f83e609a16U,
  0x3d7c15efbe3c2921U, 0xbbc9490bbe115d7fU, 0xbdac9fe93cc9e9c8U, 0xbe61964fbdca06e6U,
  0xbe559606bc5e8c44U, 0x3d9b5e5dbdb837d9U, 0xbccb2eb0be58d391U, 0xbd3b2c0cbd873560U,
  0xbc2082b43d077f2bU, 0xbc23a6b3be14650cU, 0xbb4ccfa73e9ca63cU, 0x3d833167be505f04U,
  0xbd62c284bd66d2f0U, 0xbd2a60143e54f459U, 0x3c602138be2eeb67U, 0xbe3e6678be1bc5a9U,
  0xbe590e49be17cf38U, 0xbdbb0812be1e544cU, 0x3cb184d43dbf3167U, 0xbaa3b04c3df206b7U,
  0x3e3112093e28fa3dU, 0xbe27b04dbd89d502U, 0x3d8b1bb9bd327760U, 0xbc9c1538bdd0751dU,
  0x3e1702d2bd47eef8U, 0x3c9ab5d4bde7d312U, 0xbc902394bdcd9c1dU, 0xbde8b0d0bcb9887fU,
  0xbd706d293d905c34U, 0xbe2db2aebe9ebb74U, 0x3db56a673e2fd4e0U, 0x3e35fda13d243e33U,
  0xbc8d7bc8be241fbcU, 0xbe12f58d3d1935eaU, 0xbda323433dd32523U, 0xbe9415aebec63903U,
  0xbc144fec3e6d62d3U, 0xbcea3f48bc7a4927U, 0xbd63233fbdd8e679U, 0xbdfe597b3d7edd35U,
  0xbe0508db3da10d87U, 0xbe7d4517bdafb64eU, 0x3cbcc53c3d8e66b5U, 0xbdb1d130be03fd54U,
  0xbc03304ebe8e5201U, 0x3e573a16be1095eaU, 0x3dabf3ad3de23fccU, 0x3dd3fcd83e3479d6U,
  0x3e231f393e44e470U, 0x3d91a47c3d6c52d3U, 0xbd48a546bdb00020U, 0xbdb18d59bd111b51U,
  0x3d7abdc9be7be0f5U, 0xbe14fec6bd9a95e9U, 0x3d82635abd11ed08U, 0xbe77e21e3e05168cU,
  0xbc0cdacebbd0d232U, 0xbe7530c3bcf458d5U, 0x3de12ffb3c6045f5U, 0x3d9500ebbe922458U,
  0x3d7abd953d776f47U, 0xbeb088dcbe768211U, 0xbe174d4f3dcd4fbcU, 0x3e8fe7ca3d52c401U,
  0xbdab63dcbe305dacU, 0xbdb6cefb3e0d9dfbU, 0x3e3907e93def7cddU, 0xbe85c3a1bbb9fdc5U,
  0xbc1dd078bd43d1cfU, 0x3e0bb52fbe11ff79U, 0xbd60543f3de92906U, 0xbe191e5cbe3c8b62U,
  0xbd247e39bd39e44cU, 0xbe0d83ca3d0154a4U, 0x3e0a22ebbdcd8990U, 0x3e073af33dd88c0aU,
  0xbdb048fd3e4e100aU, 0xbdcee957be455275U, 0x3b94ac783e1bdfa9U, 0x3e9fc65abc675968U,
  0xbd0374403e17c273U, 0xbdcbc052bd698574U, 0xbd2ebdbbbcd017ccU, 0xbe94fea4bcc85e18U,
  0x3e928dd5beaa3291U, 0xbe1d01b53dfa52f2U, 0xbd21fa8fbd36afc1U, 0x3dac22cabe7236b3U,
  0x3bc31c5d3db5dbb5U, 0x3db537543dea1930U, 0x3dfbcfc63ea658feU, 0xbe927639be7b4149U,
  0x3d1434cabd6e3f04U, 0x3e3f85bfbd17ae8aU, 0xbe71fc9abe8be7bcU, 0x3d76d274be54627eU,
  0xbc59f3503d827172U, 0xbdd2cba1bc04e0b1U, 0x3e2ef6533d0e9f2cU, 0xbd817e52bca1ca37U,
  0x3e3d4a753d08b954U, 0xbe0b0c74be18c42bU, 0x3d9cab113e6f634cU, 0x3e3d08cdbddac24aU,
  0xbd4f5ec83dbd5b4bU, 0x3ade0b29be694a62U, 0xbe6033fe3c8fcf95U, 0xbdd829abbdea3280U,
  0x3dd73ab13e23e0ecU, 0xbdd6d095bcba9948U, 0x3ce16755bd559d53U, 0xbe25c5e4be692a48U,
  0xbe1a881c3cf93338U, 0x3df873e23ddb7c38U, 0x3dc5d084be42e440U, 0x3e13faec3dd4fee8U,
  0xbe4405483d8c654aU, 0xbe000c6d3e96b3faU, 0xbe1d52763d93d8b3U, 0x3d8a5da0be678ff7U,
  0xbd5afb64bd7da28eU, 0xbe2b458ebe557994U, 0x3e0890453d426deeU, 0xbe08fc41bc5b0322U,
  0xbcaef982bd5d045eU, 0xbb3f8ed8bd1160d9U, 0xbbc1e904bd2ad879U, 0x3e8a1c5bbd74b7c2U,
  0xbdaee8103ea5a65cU, 0x3ddfb9a2bdb73554U, 0xbe7954f1bd8aa00bU, 0x3dd77600bcf1371dU,
  0xbe40dcea3d83d745U, 0x3dd051a33e254f2fU, 0x3d5b235c3e2d0e7bU, 0x3d6ee9aa3d955325U,
  0xbd0bd45a3c7d1946U, 0xbe9839d2be6e3029U, 0x3e2cefb33d164920U, 0x3e686b82bd9cebdeU,
  0xbd935253bd15bb37U, 0xbdd56f9e3e55bb58U, 0x3e0fac3abd03efe7U, 0x3e8c72f53e535861U,
  0x3e11a9353c8f8665U, 0x3e31c0ef3d5f0019U, 0x3ddc69003e683541U, 0xbe01ebc23d1d3d83U,
  0x3ce512283eb1728bU, 0x3e828ddc3e64a0b3U, 0x3e0bffef3d9cf0d8U, 0x3d7f8ed13d1c20feU,
  0xbdd71df0be43cac6U, 0xbd7073e8be843b3dU, 0xbcd91aac3e5bce73U, 0xbce86f9a3ce482eeU,
  0x3d39cd9e3e0bb57aU, 0xbc3f62b33e6213a7U, 0xbe46fd5abe042f03U, 0xbc34388cbe1fce4bU,
  0xbd70a90a3d712fd5U, 0xbe1a5481bd68d756U, 0xbd824a34bcd4d96bU, 0xbc7287be3e0bb813U,
  0x3e7a5018be38bdeeU, 0x3e36eb4bbd72d35fU, 0xbe892b61be63ef2dU, 0x3da5f3d0bde0562bU,
  0x3ddc6d4b3d9cafe6U, 0x3e2001d1bd3489c9U, 0x3df0f2913d3a5eebU, 0xbde18ee1be3d00dbU,
  0xbd8721413c929054U, 0xbc985149bc8a5c6eU, 0xbe076ef73e425d2dU, 0xbe25856f3d0cf03aU,
  0x3cdc42f63c5646eeU, 0xbe960edfbd61d656U, 0xbe031b15bdc52083U, 0x3daf6f83bb870c94U,
  0xbcf9c5893e07e9d3U, 0x3e25b29b3dbc63c4U, 0xbe2f59e53e6e846dU, 0xbef26b1a3d64a35dU,
  0xbe04ba4ebe5a7c79U, 0xbd7a84d4bda7f5e5U, 0xbe5da799bdab4344U, 0x3d1b4bffbd4f72b3U,
  0xbe82ffc9bd844b73U, 0xbdf403e4be5ade98U, 0x3dd5ca07bde6d1e3U, 0xbc9b6ca5be4fa667U,
  0x3da398c53d7b63f0U, 0xbe107616bdd7b486U, 0xbda6eb7fbe4c23d0U, 0xbd61f1453e3671b0U,
  0xbe2ac98fbdf9d662U, 0x3dbd1b1a3df47ef2U, 0x3e18dfa23e6705f9U, 0x3db8dc74be1a9aa1U,
  0x3daa05a7be491cffU, 0xbc8bb87d3d9ebf4cU, 0xbd84e1d4bd32ede3U, 0xbdecd802be0d35c5U,
  0x3d4ecbe3be3c38faU, 0xbd44ded3bea37bb5U, 0x3cb03c2f3df26458U, 0x3d4c9f42bca6e665U,
  0x3e5922e2be1adbe3U, 0x3c3501173d7c9abfU, 0x3d4a66ffbd84e5ffU, 0xbe3eee5bbe0334c4U,
  0x3da5500fbe8e7bd8U, 0xbec6630b3e07650eU, 0x3d33de5d3e02eb24U, 0xbd5416043dad1fc2U,
  0xbe42bfa7be6ebad8U, 0x3dfbc0853cc28b4fU, 0xbd50cc98bd523ecfU, 0x3d9d4a723d8e7d41U,
  0xbe6257abbe215b0bU, 0x3e1ce270beaef956U, 0xbe2bc44abdb2bd39U, 0xbe3895dabda942a7U,
  0x3daf9ce1bdab3babU, 0x3d874d223e7f81a9U, 0xbdaa136dbd21c60eU, 0xbef34bd5bc579184U,
  0xbcdc5ddbbebcd227U, 0x3e70dbb83d6f770bU, 0x3e43834dbeb363d0U, 0x3d9ce60a3e2c840fU,
  0xbd5dd7edbc5eece9U, 0xbe0f41bfbdea0faaU, 0x3d5b49ec3e3abe82U, 0xbb6d2c4dba366d65U,
  0xbe92a80abe12aff8U, 0xbe6e1697bd14389cU, 0x3e062964be9f745bU, 0xbb3e6ce53e09f3a3U,
  0xbda3a4b1be7c8707U, 0xbe419bd8bd9e1527U, 0xbdca710fbe64934aU, 0xbea208b0bd3ca408U,
  0x3d0ec32cbd77379dU, 0x3dbeb6b43dceb8a9U, 0xbd243ef93e0ee9b3U, 0x3d138129bd7d3ec4U,
  0xbe5b5412be0b225eU, 0xbd907901bd2ae0adU, 0x3dece0acbcada979U, 0xbdffd54cbe3c077eU,
  0xbd849c35bdb22813U, 0xbd8c4ec33d982251U, 0x3e89ffc0be8fa0d6U, 0x3e3a0d3eba8ab111U,
  0xbe58dc153e7c16d7U, 0xbda06d75bdd70494U, 0x3da460b93d56d254U, 0xbdd29b873d9039e3U,
  0xbdf0ebfebdaf6b6cU, 0xbbea82c2bdc67823U, 0xbed5c043be396e0cU, 0xbeada37ebd5efeafU,
  0xbe6bb8d6be8016d3U, 0xbd196a5c3d2db236U, 0xbde489e4be1a3925U, 0xbd3118e13e0a1e29U,
  0x3d3da6f33d72128eU, 0xbe2c36973e2a36e6U, 0x3d71aa39be4e73c7U, 0xbdb565883ebed82bU,
  0x3c27c039bc6c7239U, 0x3e4b6289be40b210U, 0xbca46408bc1c7baaU, 0x3d25b1953dae266fU,
  0x3cb599f73d037538U, 0xbe4c3d5bbe398a09U, 0x3e5e83123e026aa8U, 0xbd065b51bd84da95U,
  0x3e79b844be110709U, 0x3e031113bdbe2f3dU, 0xbd898dbe3e3412ecU, 0x3da5653c3da42c48U,
  0x3d7c3c6b3e14ff8dU, 0xbeb30601be1354f8U, 0xbe1f9892be41b951U, 0xbecb6ce5be546878U,
  0xbd068ffdbd74ba25U, 0xbe5dba61bdb8a947U, 0x3e0a3f743e80b046U, 0xbd8733abbe00eec1U,
  0x3d569cccbd94b374U, 0x3db9f7853ec1f1e8U, 0x3e98e518bd62f565U, 0x3e948c6e3d401e71U,
  0xbd3591733e9ddd3bU, 0x3d0c3c4fbda24d89U, 0xbd75d5f9bdbf3864U, 0xbde9b4aa3c49e55cU,
  0x3d8708e03e276ea6U, 0xbe973ac83d45dfe3U, 0x3d90f101bd87d365U, 0xbdb81eadbe31337dU,
  0xbc419fc1be3d375aU, 0x3c86c5c3be2a79beU, 0x3db0a93e3dd58019U, 0x3d638e73be10d87aU,
  0xbe969026bc98aefcU, 0xbe2528e9bee522c5U, 0x3deef20cbba4431cU, 0xbe050bc6be081d51U,
  0x3e8fae0a3ddd1d5eU, 0xbd4c9b2ebd8d5e89U, 0xbdf894373d2b0d0fU, 0xbd328b8cbd29ac7eU,
  0xbe0f804d3df001c9U, 0x3d352927bd5261f3U, 0x3e017b133e2ad3d3U, 0x3d240d2d3e802d5cU,
  0x3d2144f2bc4954e8U, 0xbe0a327e3c80ce2fU, 0xbe74dad53eaf6866U, 0x3d441d36be8f8018U,
  0xbdb4af23bded4d29U, 0x3e235b80bdc653b3U, 0x3a8ad5363daca68eU, 0x3db62ca33dbf28edU,
  0xbcc2576c3d88e6b2U, 0xbe9f71d8bcf84009U, 0xbe8a334bbdf4ba7aU, 0xbdb242e2bd807994U,
  0x3df6b3243cc5be4bU, 0x3e11e386be4edd96U, 0xbd81a7ed3ead9b72U, 0x3c57002cbd203039U,
  0xbdeadd1cbe3e784cU, 0xbeaa22e33e9fc046U, 0xbdc7e9abbeb666b3U, 0x3b683480bd7c9977U,
  0x3ca079db3da93d3aU, 0x3d6830533dc3a530U, 0x3d7236dc3dbef4a9U, 0x3d3d9c07bd99b5eaU,
  0x3b218ebebe455e67U, 0xbd82a4663da4f000U, 0xbdd1a9c3be2886efU, 0xbddab982bda4ecddU,
  0x3deb71b6be192f2aU, 0xbe1fddc5bcbf1ec4U, 0x3e2ebcbfbe18aca3U, 0x3dd3ec633c5df259U,
  0x3e527f263d29ec1cU, 0xbe9f31bf3e34b1c2U, 0x3df7b4c7be910a5dU, 0xbe23d5eb3d7e8589U,
  0x3d0b43e8bbd8b46fU, 0xbe11c3b53e250702U, 0xbcf3a791bb5be4a0U, 0x3da586363d029664U,
  0xbd9f9734bd954f7bU, 0xbe5adb8dbe2c9871U, 0x3e3de8933e048f95U, 0x3d9f09c4bb5398fbU,
  0xbe917839b97e710bU, 0x3ec60bfbbe2fe90fU, 0xbd5236fd3e97fcadU, 0xbd470a94be0fe6cfU,
  0xbc8ac4ca3ca1a6d9U, 0x3b72648b3d806c3aU, 0xbcbfd87cbea87ac8U, 0xbc881cebbe585ef7U,
  0xbdf33d97bd29a548U, 0x3e1b2e9e3e16dad6U, 0x3c71ee693eb90c01U, 0xbe18057c3d55e5ceU,
  0x3e0d8ac13dbd1b8fU, 0xbe68887c3e5cebefU, 0xbdb81a88be1d11e1U, 0xbdbc7e6abcf03c35U,
  0x3b5f55d4bf0741e5U, 0x3d98ca1cbe82ede4U, 0x3dcf2a80be16f807U, 0x3d11bbbcbcc62a34U,
  0x3cc5eca3bd4d9dd1U, 0xbe484d59be2ebd8fU, 0x3e77f9eebe607d58U, 0x3c25111c3de45589U,
  0xbbf38d27bdbc5650U, 0x3d78bec1be27f825U, 0xbbd7a4bfbdf3569eU, 0x3e40c6173d185752U,
  0x3e7afe61be92c8dfU, 0x3d39bfc7bdba1547U, 0x3dd7bba43d20ab24U, 0xbe8b837cbd9f19ffU,
  0xbd9dc47fbcb0442aU, 0x3e4349bcbe041317U, 0x3bb71fddbcf922aeU, 0x3e1a48e9bd0ad9baU,
  0x3c8cdbdebb8b132aU, 0x3e02c0653e25985cU, 0x3d6f5634bc8725d0U, 0xbd8c1ab93d9caf13U,
  0xbe38f034be5b7696U, 0x3def5d36bd8bebc5U, 0xbe426a25be8faf6cU, 0xbe67bac4be9c0c89U,
  0x3e8541efbe1e0297U, 0xbd4d8d1b3cf7aeb2U, 0xbe8c1e1e3e42f1deU, 0x3e8546f2bd69d763U,
  0x3d30d333be1a04b2U, 0x3d8100af3e23e410U, 0xbccd8056be838169U, 0xbca5083dbe06dec7U,
  0x3cfbe4333dbcd894U, 0x3e09c6b83da0d0baU, 0x3ea37e10be114bd5U, 0x3e1248fbbd32759fU,
  0xbe8b80ccbd606e8fU, 0x3c8e224fbeb03ff6U, 0xbe1a68553e08444dU, 0x3e352cd1be99a999U,
  0xbd24c9c03e179ad4U, 0x3d25eda4be2528baU, 0xbe174269bd894911U, 0x3cc5d5d4beadc8e2U,
  0x3cc20fab3d885041U, 0x3da8a0a8bd83132fU, 0xbca5ea3fbf029512U, 0xbdb6423e3e304b86U,
  0x3c0afb0dbe17ee8aU, 0xbe021cd2beb1ff2dU, 0xbeaae52bbeb3dba8U, 0xbe7ac2ee3b08a31bU,
  0x3ca6907bbd250e26U, 0xbbef8ebb3d658090U, 0xbdb4e0d03df3fefbU, 0x3e27362a3dcf0e87U,
  0x3d8c99af3c924589U, 0xbda9c4853db11ad7U, 0xbce171413e5bdef4U, 0xbe1a652b3ddc2fbdU,
  0x3e8b39f93dba7143U, 0xbd3a366a3d434f8aU, 0xbdcdfa56bbe85f9bU, 0xbe936232bdc9980bU,
  0x3bd9bc98bdc7a92eU, 0xbdc7b87fbe2ec823U, 0x3e11c453bc7d4b92U, 0xbe6cf8913e7a3817U,
  0x3e25739fbe061fe2U, 0x3d5b46bf3c08bffaU, 0x3c06eb5cbd653260U, 0xbc89c627be5ccbc4U,
  0x3e51dc013dc34e9eU, 0xbeaedad83d23fdecU, 0x3d840c58bea7f5f3U, 0x3d0093afbe59b4e2U,
  0xbd317ff0be1de44cU, 0xbea421df3d054d59U, 0x3d5ae6b83d9bc281U, 0x3c9a024f3e19bb51U,
  0xbdc737b1be48b316U, 0x3b4ba2213d5b0f47U, 0x3d31815dbe994b3cU, 0x3bb9e8c1bd8b5b3fU,
  0x3d8ddbe7bd480235U, 0xbe610d96be10905eU, 0x3e1b382c3d22ec58U, 0xbda0ab22be37dc59U,
  0xbe1927693ab644d7U, 0xbe67e4083de3c43bU, 0xbe378f2d3c8a125cU, 0x3e1c8119bcf6a9bbU,
  0x3e2c3fe1bdadb4f0U, 0xbbcec80f3def538cU, 0x3dff1edcbda30615U, 0xbe125b853e09ef19U,
  0x3e1a9a233d81e6a1U, 0xbdaf7450be361517U, 0x3e493d62be93c4a6U, 0x3e7f58ee3e0fe489U,
  0xbbfffa0c3e88f44fU, 0xbe3b319fbc6f1d78U, 0xbdcbf6ffbdf44a69U, 0xbaf2836ebc68c5cdU,
  0xbd38d294bc529e6fU, 0x3c70e1a2be07a454U, 0x3d6c875cbe050d89U, 0x3d7a6449bde41774U,
  0xbc117bb63e5f4ccbU, 0xbd0299ebbd20641eU, 0xbc683926be91f826U, 0x3e6743783e88668eU,
  0xbddb868a3dced0e2U, 0xbb323d573d008d5eU, 0x3e96c341bdfc61d2U, 0xbbd62d063d822575U,
  0x3e9d5795bebe4703U, 0x3d2f15a3bbf852bbU, 0xbdd27ced3e7d1fafU, 0xbde2240c3e378c8fU,
  0xbe0f3f8bbe68a364U, 0x3e6b0cbdbe1fa7ffU, 0xbd9e99cabd92d966U, 0xbe095acebe01338dU,
  0xbe22597c3d7d0661U, 0xbe896800ba721416U, 0xbe3dc52f3e2a908dU, 0xbdf3a8f43d447b87U,
  0xbd6018d1bd8f0a92U, 0xbd6d6414be2349daU, 0xbd9e107ebd290094U, 0x3e3515553d5c93b8U,
  0xbd8dc36dbd54981bU, 0xbe903ebb3debb7feU, 0xbdc0471ebe99cc2bU, 0xbd9bdc68be52010dU,
  0x3d4dbb6cbc3842bcU, 0xbd371dfe3db501baU, 0xbdbf1f61bea880f1U, 0xbddaf622be2d4f03U,
  0xbccc369b3e0702aaU, 0x3da285a2bd9a175eU, 0xbcffec243ea48479U, 0xbe7401afbd83f7d4U,
  0xbc2af644bea45618U, 0x3dc4b4e5be667a6eU, 0x3e2982533bbf5972U, 0x3e856bfebcb373b3U,
  0x3d73a0c4be8753c9U, 0xbce38deb3de8247bU, 0x3dc8d6863e116ca7U, 0xbe8ae46c3d88f31fU,
  0xbd2b0f343d889e91U, 0xbdde8b4a3e16a95eU, 0x3e37049ebe1a93a3U, 0xbd30d3eabc725463U,
  0x3cd8a5503d61187fU, 0xbe39e61f3d84fa4dU, 0x3e8afa42be468149U, 0x3ec99140bded3abdU,
  0xbdb486f33e2f628fU, 0x3e7146463dd57526U, 0x3deb1d9bbd5d781aU, 0x3d4d5547be4522ddU,
  0xbdb258c93d2d51eeU, 0xbd6328853d6df010U, 0xbd60389c3db98874U, 0x3d4e15b6be8a69fcU,
  0xbeafaf5d3dc29180U, 0xbe869a2ebe9d3c9bU, 0xbead5a1cbd9fd3d6U, 0xbd2c87253d82c64cU,
  0x3c8de9fbbe3a724fU, 0xbc4daa99bea48acfU, 0xbe221431bdadf853U, 0x3e5079e1bb60c758U,
  0x3dc3732ebdb6a7acU, 0xbd24ec06be4db1c8U, 0x3e894469bdd9c799U, 0x3dbb66923e357ddcU,
  0xbd52f24cbe2d6667U, 0xbe210ac0bcbefd45U, 0x3e68add73e8b284cU, 0x3d34ef413e538252U,
  0xbdb7158f3d9bb542U, 0xbd83cec3be425fb4U, 0x3e43e0f53cda7ce9U, 0xbe6751e53cae1c64U,
  0x3e07c63a3c1fc220U, 0x3e0656e9be2bfc5aU, 0x3e268ddbbd727d7fU, 0xbb6b27a3be09b757U,
  0xbe0aa547bcb208d5U, 0x3b7d22e53d92ea4eU, 0x3e083e10bdb3e175U, 0xbd0eb545be8c7cbdU,
  0xbe2387af3d53a0dfU, 0x3d11bd7bbdfd0bbdU, 0xbdbbbf723dac6105U, 0xbe22bf4dbe3f91acU,
  0xbdf1c69cbdf2f98cU, 0xbe9d0d793e5b9b37U, 0x3dbf1582bd14bbe9U, 0xbc41524d3dcc6212U,
  0xbe1732a2bbdc3467U, 0xbde0a4913d8e4b7bU, 0xbdfe0b9fbdd64806U, 0x3c0a07333e0dfddcU,
  0x3e1bdeb1be9d04a3U, 0x3e96b88a3dfc353fU, 0xbdb6433d3d279493U, 0xbe98e078bc858f32U,
  0xbd9e1fd3be43ae88U, 0x3e201327be11cb4eU, 0x3cb6c8cabe5ccaf0U, 0xbd2a61bbbef519c4U,
  0xbd5301e93e1771daU, 0x3d6ce4e13e126f3fU, 0xbe2ab151be136d8aU, 0xbe4ed549beaea956U,
  0xbe3976793d15d737U, 0x3e30f476becc6e52U, 0x3c8b491a3dcbeadaU, 0xbb00e19abcd142dbU,
  0x3cbf9cf63e97cbf8U, 0x3d4cfd87bd087838U, 0xbddd7d623d3784a5U, 0xbe64faabbe40c1bbU,
  0x3e3a98eebebe7540U, 0xbe61f3e5bdc5f82cU, 0x3e85afa9be1da765U, 0x3e280de23d064055U,
  0xbd5dc02a3e664f7cU, 0x3d51a06dbe80d4eeU, 0x3dfb6cc03e6ce014U, 0xbb8c01d63e3bde66U,
  0x3d22d343bebf72bdU, 0x3dd4a5653dc9a49aU, 0xbe158c38bd53fa85U, 0x3e7a5d33be1bea99U,
  0x3e548cdd3df910abU, 0x3d23ce743ca5ea71U, 0x3d682b923d2a2784U, 0x3d7b6132be815e61U,
  0xbe88a960be478fa6U, 0xbca3ab70bcb51ad8U, 0x3d97844abd5ef2deU, 0xbde42b213dd26106U,
  0xbd823358be749bbdU, 0x3d9c2b70be198bb6U, 0x3d6d6e83bce3b63eU, 0x3d2069abbc3e1adbU,
  0x3d8a2add3cfd64a6U, 0x3d90ccd7be307e82U, 0xbe27c656bd19a128U, 0xbe157b473c42bc96U,
  0x3e908c72be879df4U, 0xbe78e799be14e78bU, 0x3db8f13ebe0cef64U, 0x3c9d3fefbdb712d0U,
  0x3dfa9c9f3c1e0075U, 0xbe7310553cc17b40U, 0x3e424a3abd65793bU, 0xbe944b72bec81f54U,
  0x3d094a2dbcb957e7U, 0x3e27ae9cbdd75949U, 0xbcf967f73c471b46U, 0x3dd49b563d770636U,
  0xbd7df76fbe0dc516U, 0xbe447f89bddb0d23U, 0x3da3c1bcbdbfbc9dU, 0xbd3a660bbe5f5b66U,
  0xbe651a0dbe0a5f03U, 0x3c8a70dcbd496ebaU, 0x3db3d2cb3ca6e8faU, 0xbe42d4d2bdc8a521U,
  0xbe5e2e4bbe04ac82U, 0xbde53f4c3dd5eaffU, 0xbd366594be7e5923U, 0xbd72caacbd224a8fU,
  0xbd8da633bd9f5beaU, 0xbe4c66fcbdec9bbbU, 0xbc1e4ef0be76ebe7U, 0xbd62a654be361ccbU,
  0xbcbdd1de3e176f0fU, 0xbdb0612fbe956f50U, 0x3ccac74c3da8212eU, 0x3e8181da3d126ebfU,
  0x3ce6f452bccf4219U, 0xbd93a74bbde31b2dU, 0xbe8a357f3c7cba06U, 0xbe3f8f04bd2e53b7U,
  0x3d5dcf86bd8cd625U, 0xbcec53c6bc8434a2U, 0xbd0ff5b73df42d5eU, 0x3d609be8bde70819U,
  0x3c951ecf3bcb2673U, 0xbe69bcd63d970df5U, 0x3d649ecebc93b61fU, 0xbe2e80953dcad8d2U,
  0x3d39a0663d974b18U, 0xbe183eebbdec0450U, 0x3d90a344beafb5f4U, 0xbd7db5d0bcfff03aU,
  0x3e87839b3e76df29U, 0x3e6d4281bbd63e80U, 0xbd97723a3d5785e1U, 0x3e575a1d3ea953c6U,
  0xbe6d074ebea34c18U, 0x3da100df3e1557bfU, 0xbe74fba5be7ae7a7U, 0xb9d9b6273de79969U,
  0xbe8ec3413df76db8U, 0xbe25eba6be529facU, 0x3d9350ec3d7672deU, 0xbdd336633ea66be7U,
  0xbe26b183be1b9eb6U, 0x3e34ef05bd063d4cU, 0xbe65bc713e127406U, 0xbc4e6c84be8e287cU,
  0xbe54d34abe89521bU, 0xbd58d33bbbbce616U, 0xbbed7eb43ccb0660U, 0x3e20a1283e24f274U,
  0xbd101cafbdc4235fU, 0x3e1051733ce26169U, 0xbc1712053cbbad1aU, 0xbdf30d5f3ca7914cU,
  0x3de094a4bdf60e35U, 0xbe0bbc0e3e357b7eU, 0x3d8e07d93b9fd07eU, 0xbd9363093e6a1e79U,
  0x3de935913cb720cdU, 0x3d6d627fbe148d66U, 0xbcdf701fbd1224dcU, 0x3e89e1d33c85bccaU,
  0xbe884a133d1f1991U, 0xbe297210bd52518fU, 0xbda3ff743e2ef537U, 0xbe9ec1b7bd88155bU,
  0x3dadbefabdb2319eU, 0xbd1c64d93e3e50aaU, 0x3d5abf483e050687U, 0xbcfdd112be71a05dU,
  0xbe2a16e1bd4e28e6U, 0xbd2d6bb63e53ccf0U, 0x3c94cdabbca4e4d6U, 0xbe096deabdc4c6ecU,
  0x3e45fb3f3eb40e05U, 0xbc3becfcbdb663a2U, 0xbb0ff2173d7ff424U, 0xbd77ca923d718870U,
  0x3e0a8dcbbe756975U, 0xbe80cdcf3d9e1f5eU, 0x3e69b89b3e3d6b71U, 0xbd31fd78bdf14a1cU,
  0xbda2f1ff3e3eb13aU, 0x3e94ef553c302240U, 0x3dc69c2ebb1df8e4U, 0x3ddcfc88bb872179U,
  0x3d7070e83da4da5cU, 0x3d1e913bbd44eba6U, 0xbd80583f3e34b223U, 0x3e3a7c80bde4f59cU,
  0x3d355ec73e09bb1bU, 0xbc34ba8abe9b31c1U, 0x3c8e4b853d423701U, 0xbe6cf6d0be1f2f5cU,
  0xbe51bbdcbcfe1709U, 0x3b96c2163ca53393U, 0xbc2eb7f8be4a2ab9U, 0x3e50fef0be2e473fU,
  0xbe76ad3a3c9e04e6U, 0xbdcc26f83d8e07dcU, 0x3ddabf563d5e1c01U, 0x3da79747be925f74U,
  0x3c8963eabd62ccfcU, 0xbe20e3babd222ffcU, 0x3e3e73a73d2d5b1cU, 0xbe47df1bbe1104c2U,
  0xbe294b2b3d1f3876U, 0x3d402c3cbd4de493U, 0x3db3f3e3bccd94e7U, 0xbe442e1ebc7e50f4U,
  0x3e183900bdc4e08bU, 0xbe379c92be198792U, 0xbea235373e8d72c2U, 0xbe3eb051be35e85eU,
  0x3d9674debd805b68U, 0xbd57a7283de8c566U, 0xbd453d88bdcd9691U, 0x3d4f05cf3da85abeU,
  0xbdcbea8d3dae8b7aU, 0xbde8471fbdba6571U, 0xbd7393b53c1c8752U, 0x3ea3d8ecbc301321U,
  0xbe814504bdf1dfcdU, 0x3c986853bdc596cbU, 0xbc5944083dae95f4U, 0x3c8d5f653d94d4bcU,
  0x3d95b354bddd13feU, 0xbce5d81cbdc1a977U, 0xbdf355f03e0b014cU, 0x3d97c712bda50df9U,
  0xbe76f329bd6e6a7aU, 0x3d8bef9a3e3297c3U, 0xbe7ffeb3be8cb3bbU, 0x3daeda6abd1471b0U,
  0x3d8c703bbe700d19U, 0x3d583c9cbd131b23U, 0xbd802d8d3e5192b3U, 0x3c89fd16bee4ba3aU,
  0x3d1615f13e67ed9bU, 0xbcdda844be0ea032U, 0x3d025a10bf0399b5U, 0xbe665fedbd659dbdU,
  0x3e1fb7193da82e54U, 0x3d4c5651be5cf3d7U, 0x3e2d5fcc3e777acbU, 0x3d95f56b3ea3beedU,
  0x3c8d8f383d9ff452U, 0x3da04fa43e0b30fdU, 0xbe83c910bcb70ce7U, 0x3da09fe3bd0d8911U,
  0xbceec4583b95a81bU, 0xbdf94d56be907c67U, 0x3e0a7bb8bc19c5daU, 0x3e0b07ce3e504f30U,
  0x3bff86b63d1ea671U, 0x39eaf11abda3537dU, 0x3dce07fe3e9aaf79U, 0x3e4b8b043dab977aU,
  0xbddaba7bbd1af3c9U, 0x3c58eda2bcb7ae2dU, 0xbc931cb03dcf16e3U, 0xbe40bbf93cdbdcadU,
  0x3e48c9243e339cd4U, 0x3c719b143dc2dc1aU, 0x3c0daf3ebdd4d409U, 0x3e8b93323e47401cU,
  0x3bd3c6bb3e8b9c34U, 0x3b36e478bcd32a6cU, 0xbda408933c9e60c4U, 0x3d8cbe41be060d01U,
  0xbde8f906ba4458f9U, 0x3de50c70bddc662bU, 0xbd88bb6dbc6ab118U, 0x3d79daf13cbbc991U,
  0xbd8553963c8ac24dU, 0xbda72702bd3ca58eU, 0x3d9228133d84fb8aU, 0xbdde943b3e0edfefU,
  0x3d8fbadf3e1a98f4U, 0x3e0221e0be44db1aU, 0x3e6f8c8fbce917e9U, 0xbea00c3b3e38d5a6U,
  0xbe12aaf13d3bd0b2U, 0xbe145d9abda8987eU, 0x3e87a83b3dacb03bU, 0x3e0416dbbe908052U,
  0x3d20e928bccfe6c3U, 0xbeda1c92be8872b4U, 0xbe9c147f3b754eb0U, 0xbcb7f6d83d0657d5U,
  0xbeaa1315bd3c9aa6U, 0xbcef2d33be530a46U, 0x3dec3a98bda7b36dU, 0xbdf11128bd89b9a1U,
  0x3e0f5828bd500a43U, 0x3e3e81933c805770U, 0xbd31119e3d7ba1deU, 0xbd9c3fcdbe48ada9U,
  0xbce82a6f3cb1f77cU, 0x3ecff415be85d5beU, 0x3cb1b8d33e160cfaU, 0xbc172e32bd2cb618U,
  0x3c8dd7a83e5f1118U, 0x3d837e54bd109b54U, 0x3d5f9271be069e26U, 0x3ee8105e3ce70985U,
  0xbd60ecf93e13774dU, 0x3d884f37bcaeff9eU, 0x3d86dc083c0f01ecU, 0x3e0cebfb3c5147f1U,
  0x3e5b45423e02bd58U, 0xbe938942bd9c5a74U, 0xbe7806e73e865bdaU, 0xbe3ce255bdae372dU,
  0xbe26cc3fbd9c399aU, 0xbc660af4bdbbe67bU, 0x3e87d6073ebc28c2U, 0x3db20a74bdd41bceU,
  0x3d75facd3af25af3U, 0x3e3874bf3e0c923eU, 0xbdcbb63bbde48023U, 0xbc7b10953d1d63a3U,
  0x3ddcc73c3db629feU, 0x3dccff02bcd3b338U, 0x3d9f86f7be0cbac2U, 0xbdc13e98bdfe1d08U,
  0xbe47101cbdd50d8fU, 0x3e241142bc5d8107U, 0x3cd53f953d9742d9U, 0x3e2e65bfbdfb0262U,
  0x3dbffa6cbd19156eU, 0xbdd112bb3c5c3122U, 0xbe98360cbdfc5817U, 0x3cf4edb4be7b86deU,
  0xbd924c1b3da25a44U, 0xbd2e0d6c3e2c6bd6U, 0x3dfb7e323db26ffcU, 0x3d92d708bd85446eU,
  0xbe08d39abe07836fU, 0x3d86a5973e8b44e2U, 0x3e3ae971bdf5e934U, 0xbdbac2773e82affbU,
  0x3e7bf4d23ddab25bU, 0xbe90bb56be85c399U, 0xbdd460a6be60f093U, 0x3c9c48463d93ff83U,
  0x3d8be0ec3d6bc464U, 0x3d9ff6da3e4dc347U, 0xbde4fe45bda9d80eU, 0x3cd3135abe48aaa4U,
  0x3e4cc4c0be0b2b18U, 0xbd9fa83c3cecb6a2U, 0x3e710a30be2eb55fU, 0x3c5a449fbb484615U,
  0xbb8a0ea3be0dd650U, 0xbde183af3e1ef3beU, 0xbbb462fdbdb5562bU, 0x3ea326d53df608eeU,
  0xbc53c4adbc6d617cU, 0xbd881e733db9bba9U, 0x3dfc931fbe18d418U, 0xbd6a5aadbd81b63fU,
  0xbd676448be132f3fU, 0x3958f7ce3e5b63daU, 0xbe9076a0bdaf4628U, 0x3e50fd00bde33d23U,
  0xbd245c7bbdaeea42U, 0xbe384f4c3dcfcae8U, 0xbdde88db3d931567U, 0x3e5d00353e0d5b20U,
  0x3d885b63bd962907U, 0x3dabb7ed3d8376f7U, 0x3e0df318be4c25cfU, 0xbd40e835bd834683U,
  0xbce7eae73e205f2cU, 0xbd9c082dbdffbaf7U, 0xbd4ef5ab3e10a651U, 0xbd5c4babbdd13a84U,
  0xbe4db908bd319cccU, 0xbb8dd7e5bea30583U, 0xbdba32c7bc6c303eU, 0xbde524723df10b3cU,
  0x3dd6ae983d180cd9U, 0x3e28c25e3e5a9fe0U, 0xbc9946733e3d8b1fU, 0xbc59220f3d9edbdbU,
  0x3ba854903d9cbfaeU, 0xbdbdac563e17ff7fU, 0xbccf8b6abd133290U, 0x3e06d8223ec5399bU,
  0x3e2f0282bdf1f57fU, 0xbe475dc1bdd89b6aU, 0x3d8360cabeb30e72U, 0x3d9495f3be293b74U,
  0x3e803ea5bc8bcdcaU, 0xbdc9147abd62b773U, 0xbdce06ccbdcd45ddU, 0xbd5c731abce5443cU,
  0x3e31cc04bd03db3eU, 0x3da50890bda146baU, 0xbe09590c3d8b1541U, 0xbc94bb863d5f652cU,
  0xbe2415adbdb523d8U, 0xbcc90ab03d28b046U, 0x3cfdf4043cc9e952U, 0xbd8672543cf26460U,
  0xbde48a693c8b74e6U, 0xbd10089a3d840e69U, 0x3d0a6f713e707a07U, 0xbe4fdf56bc6f50c4U,
  0xbd9c40ddbe403652U, 0x3ddf8bcd3dbb30eaU, 0xbe1cfab3bcfbb91aU, 0xbc4e6942be46d7daU,
  0xbb41b171bba1452dU, 0xbd6b9c5cbdae0373U, 0x3db32f3d3d0abcb1U, 0xbe9fb039ba3bae27U,
  0x3de97c5a3e2e92deU, 0x3cdfee72bd877569U, 0xbc8a56a9be815a61U, 0xbe4831cabd0ac9ffU,
  0xbd5b8007bd904325U, 0xbd9d3a2cbe8d20aeU, 0x3d8b57fa3d09925fU, 0xbdbaa61fbe360002U,
  0x3da9b581bcddd93cU, 0xbcb7ce623d88ee66U, 0xbcddc5a8be6c3e8cU, 0xb920a559bd86b96bU,
  0x3e82e09bbda1bd18U, 0xbdc965c83dcf3477U, 0xbe8d61293da960b5U, 0x3e57a3523da071a3U,
  0xbca99cc4bd468f3eU, 0x3c505cea3ddc5465U, 0x3e03c197bcc21110U, 0xbe5f7315be4116b2U,
  0x3e7d8eafbebf5fdaU, 0xbe104e1cbe174becU, 0x3e15e80fbe1e196cU, 0x3eaa7691be07b32fU,
  0xbea072203e0a0115U, 0x39bdc533bd9fe4a5U, 0x3cd2e453bc8f2001U, 0xbd975b083e1febfaU,
  0x3e60606dbd61f795U, 0x3d7f8c7b3e8c7d14U, 0x3e0580b6bdd029d8U, 0xbe064cd53c914a5eU,
  0xbd59cc04be21bde5U, 0x3e86a69a3d83f886U, 0x3dd177013ec51292U, 0xbddb87c7bec52217U,
  0x3e9feac73c2755bdU, 0x3e382831bdf029dfU, 0xbe6b249cbe1944d8U, 0x3ddc5495bb1b977dU,
  0x3e93618abdde3f65U, 0xbcb1fe983dcb91f2U, 0x3dd7daeabcffb766U, 0x3e02a14ebda634abU,
  0xbe6a9652be552d5fU, 0xbeb4a62bbbf2ff90U, 0x3df1db90be32ce35U, 0xbdd0ad743e7cb823U,
  0xbe5b1de5bdac2772U, 0x3e20d0f43a114679U, 0xbdf644abbe845016U, 0xbebac0b3bb816a20U,
  0xbd75fb70bc8745f4U, 0x3ccb6d98bd0cee78U, 0x3d8e8305be3b618cU, 0xbdca5ed73d66c593U,
  0x3d1988bcbd585496U, 0xbd995b4c3d993f93U, 0xbd22d81bbcb54127U, 0xbd9632043d0edd57U,
  0xbe02d9b8bc9e7c2eU, 0xbe5673e4bdf05a5bU, 0xbe65cfc3bea07721U, 0x3e8dd3ee3da608daU,
  0x3b097ad63d03a626U, 0xbe8cf67bbe36d279U, 0x3ca061d4bcef1689U, 0x3e869cacbd859e5bU,
  0xbd7c65ce3d941052U, 0xbeabe4c03d8761d0U, 0x3d98cee7be705984U, 0xbdbc1799bd8868adU,
  0xbca9376bbd8bb7d9U, 0x3e315793bd1ab22fU, 0x3e2a9cbd3d908877U, 0x3d92400f3ce97b8fU,
  0xbe20cf74be16d44bU, 0x3df20c093ba482f2U, 0x3db622b7bbc885f8U, 0x3cb726293e46469bU,
  0xbe21f90a3d5ed7e2U, 0xbdccbef7be264f45U, 0xbe20c545bd9087d7U, 0x3d0741133db2488aU,
  0xbb3a0d8a3d843828U, 0xbe47cabfbe722ac1U, 0x3e95c7563cb360bdU, 0x3e62a074be20206cU,
  0x3cd442b4be119c34U, 0xbd138f7fbe712760U, 0xbe3443543e833dc2U, 0xbee6f9b8be095ea1U,
  0xbec364ba3c327548U, 0xbec6d9a7bdcf03ddU, 0xbe8ab13dbe2cec95U, 0xbeaa1a99be7070ccU,
  0xbe7cb386bda02d10U, 0xbc4719f2be60e466U, 0xbe5d2dd23d81583fU, 0xbe513f01be5fbf26U,
  0xbd1ef47bbd21c801U, 0x3e0b39f03d85c42dU, 0x3af143323dbfe3efU, 0x3e3820063d73f5efU,
  0xbe2a7d4f3d596e8fU, 0xbd82fdafbcd92883U, 0x3e1c184b3ddc8a54U, 0x3d6faf40bcb12ec3U,
  0x3cca06653c2f1cbeU, 0xbe05aafabe88b145U, 0x3d6729f93d7be211U, 0x3e3e0ea23db2fb8aU,
  0xbe0622bebd1fbb68U, 0xbe0e268fbe062432U, 0xbd00e5583d81d768U, 0xbe2f45fc3e0c9281U,
  0x3d98ba7a3e999f07U, 0xbd9dca4bbe37f233U, 0x3d4a68d0be106637U, 0xbd6682dbbe49977aU,
  0x3e0c523f3e7672c1U, 0x3d2da0bb3d945c55U, 0xbd208f2bbe661534U, 0x3d51e9eabe4e95e4U,
  0x3e522a263c0584f3U, 0xbdc9dea1bd28a4b1U, 0x3df26e733df6215bU, 0x3d989f293dfdcb70U,
  0x3e4aef863e00e4bcU, 0x3da78239be22814aU, 0xbe0070f2bd796813U, 0xbe0bae0cbc84fb2bU,
  0xbc08910abccd12d6U, 0xbda432babe001cf1U, 0xbe502678bd4e384fU, 0xbe435a91be138ee6U,
  0xbd20b142bdaa67d9U, 0xbe2f9ce33d01713cU, 0xbe4531a7bd57a517U, 0xbd48cef1bca438b7U,
  0x3d8c302f3e8454acU, 0x3dd1ee19be0a1ae0U, 0xbd858ab23e80d83aU, 0x3d5429aebe47e622U,
  0x3d924826be041669U, 0xbe6ed5843c61e8e5U, 0xbb99b3e4bed11021U, 0x3ba99075be5815e1U,
  0x3d533886be7d9b96U, 0xbe0cf1e63dbfe969U, 0x3dd821903d0a6dabU, 0xbde4f258be024d24U,
  0x3e28601a3cc60c9cU, 0x3d791979bd14edc8U, 0xbdbd85793e7ad412U, 0xbb590caf3e409437U,
  0x3a44885e3e1ae6abU, 0x3d565914be13a70eU, 0x3d7fcdf8bd230c5aU, 0xbd19934fbe2f62f7U,
  0x3ea81189bd81fbe3U, 0xbeae9c243db15622U, 0x3da0314fbdfef342U, 0x3df948443c0b0cc1U,
  0x3d32f739bd890cffU, 0xbddfbdabbe5017d2U, 0xbe994a0cbe9be3c5U, 0xbd866a52be737496U,
  0x3ea0b77e3c45cc29U, 0xbe625dd1be8e79f8U, 0x3e00d1823e96133bU, 0x3e1872cdbdf42df4U,
  0xbe0b9e16bcd6c3e3U, 0x3dbc7266be4c733eU, 0xbe0f579c3e1d6200U, 0x3b7d0fb03e27c390U,
  0x3d840e103d217422U, 0xbd3849c3bd095152U, 0xbe433805bd84c017U, 0x3dff08913e3d17c7U,
  0xbcd20236bcd1c1dcU, 0xbe1d5c7c3cd870e4U, 0xbdb138083e895ae3U, 0xbd9169993e929efaU,
  0xb9e51ed63ddba551U, 0xbddb2a863da290baU, 0xbe983ffdbde238c0U, 0x3e6bcfaebc610e2bU,
  0x3d824b6abe04cc2aU, 0xbd928b36bdc89ec8U, 0x3e880a8bbc24faedU, 0x384ef17fbdb7ca59U,
  0xbd91c4423b351a14U, 0xbee237de3da054e8U, 0x3e7092e4be9b8725U, 0xbe4c5a393eac8a92U,
  0x3c9d5d3abe0e2f37U, 0xbe09fd65be8757f3U, 0xbe7dd144bd69a5c8U, 0x3d3de30a3b8bf8e1U,
  0x3dac0cfe3cf3335bU, 0x3d57f0b43d55030aU, 0xbe4d922e3e6b221aU, 0xbe14ff443e001864U,
  0xbe0aa7983d7bc462U, 0xbe1509b13dc18e37U, 0xbd8e80c73d50b5c8U, 0xbd7ce7593e2ba365U,
  0x3e0f26ab3ce09b9aU, 0x3e25f6a83d91e19aU, 0x3ce7e8a0be0570a8U, 0xbe9e8a4b3c60323dU,
  0x3e44a7febdbf3f08U, 0x3caf7eabbd5f093eU, 0xbbf9c7babd7563faU, 0x3dd22439be8cc0caU,
  0x3e3adb50be45cd92U, 0xbd69c884be06b85eU, 0xbec34ae43d5ec8b1U, 0xbccbf291be61315cU,
  0x3d60ffce3e0ec7baU, 0x3dad2b6b3ea0e9c9U, 0xbe21ddefbccef09bU, 0xbbe34cf43d089cfdU,
  0x3df6ea573da62945U, 0x3dee26e8bea0ab39U, 0x3dea1f85bc1d29f7U, 0xbe05a7753d463bb8U,
  0xbdcb03dabe3e7aa4U, 0x3c35fef1be913c4aU, 0xbd04de873dff5f82U, 0x3d2eb9d23d53d6e8U,
  0xbe8c6a023e0ebbdeU, 0xbe875ababd85afe3U, 0x3c1b030cbe30642dU, 0x3d8e5a24bdfb6b1eU,
  0x3cd441973df7a448U, 0xbe0227793db225caU, 0x3d706d62be71ff6eU, 0xbd8cd5be3dd8306dU,
  0x3d0bd29cbdcadc8bU, 0xbd9fec23be0d3b32U, 0xbdb7a705bdcd5451U, 0xbde23132bead506fU,
  0x3cbdef273d048828U, 0x3c1fba9e3d100c2eU, 0xbcb8754ebe32d42cU, 0xbdae4ec9bd60cd13U,
  0xbd9b631dbe3000f2U, 0xbb20a8da3d8ab73bU, 0x3af33bf03e126280U, 0x3d3eec54bd3b6b85U,
  0x3cacf39c3d966e30U, 0x3e6bf5513e803920U, 0xbcb108723d862f6cU, 0x3de629c2bd2b96efU,
  0x3d0652673e3bf02dU, 0xbe7b5af2beaa7e7fU, 0xbcf8e801bd46a9efU, 0x3ce5d1683e3fbaaaU,
  0x3e58f789be063169U, 0x3e0c6e5e3d2f18ecU, 0xbc2d6367be0182feU, 0x3e32fab2be5940d2U,
  0x3d45958e3ddeb6a6U, 0x3cdc6e643db9a008U, 0x3daf7ff4bddc43a5U, 0x3cb833c73d9189f5U,
  0xbda3c578beb3f083U, 0x3dd0a599be8fb21bU, 0x3d4fc606bd33e235U, 0x3d54a67b3d7250f2U,
  0xbe23981c3e22e24fU, 0xbd6da4f0bcbc0cacU, 0xbe846636bdac3c33U, 0xbe01a754bc3ff16fU,
  0x3d51de0ebd9dbdf8U, 0xbe11589dbdbb10f1U, 0xbe8ec0d33dcec9aaU, 0xbdc308443d3b7242U,
  0xbca6e9f23e2f123eU, 0xbe2a33e53dda03abU, 0xbca1bf933d9ffaedU, 0x3ea64145bd4c037bU,
  0xbe3a68243cfa823eU, 0xbe2819d53e09c59cU, 0xbd8d4ea8bdcfde10U, 0xbe03aa6f3c9e7bc1U,
  0x3b40070a3b7c30c4U, 0xbe78d9b3bdcaf9cbU, 0xbd558852bc4ae6ddU, 0x3e2a2f48bd4ab066U,
  0xbdf7a1ac3c27e269U, 0xbe7df127bd956a8cU, 0x3eba8c7b3d1515e1U, 0x3e4478cdbe3ac489U,
  0x3c872e5e3da8a68eU, 0xbe66ffdabd00a9ceU, 0xbbe935a1be3c3afdU, 0xbe17c1803e52e86fU,
  0x3ccac60bbe03d6e3U, 0x3dc5cf67bd59c063U, 0x3ddde2203e3c4c96U, 0xbd4a1b20be101ed2U,
  0xbc64cc303e3a7394U, 0x3e0d80573e36eb9fU, 0x3ea6e6803c156fdeU, 0xbe0ab2f23e0f8dcaU,
  0xbdcd4803be24cb79U, 0xbda47351be7c1e30U, 0xbdb01d86bdc22d6dU, 0xbe52f2c7be18cbb0U,
  0x3d8e01dfbd906fe2U, 0x3d191d98bdbdfe09U, 0xbdc09634bec820bfU, 0xbe8b61463e16595eU,
  0x3d999184bdddcc5bU, 0xbe46e846be830cd5U, 0xbe69aec3bd3634b4U, 0xbd82fbee3dae2b5aU,
  0xbdd4f775be79ab9cU, 0xbd5012e93e0f96baU, 0xbdc003f33d95aa91U, 0x3ea703d5beac653aU,
  0xbddaef803dbf11b9U, 0xbcbea59abe19b08aU, 0xbddc0e13bd09b9e8U, 0x3cd71f33bdd0299dU,
  0xbdf784f7bda7092fU, 0xbad7204c3e8d787dU, 0xbda28bfcbe02db59U, 0xbc9206b13c9c0b09U,
  0xbe15266c3df1c0a8U, 0xbdfd6a8ebded5911U, 0xbd4050f23db87136U, 0xbcfbdf1ebdf3d9c8U,
  0xbca778a93c8f9233U, 0xbe45ab553ddcadeaU, 0xbe7a242abd184b88U, 0x3e4b98ca3d83e348U,
  0x3c8d38e3bcc54e96U, 0x3e0ba0a63dcc931cU, 0x3da2dfde3d2a0237U, 0xbe9e722e3e5c28b7U,
  0xbd772e02bd963259U, 0x3e13dfc33dcb9e35U, 0xbdfc1fe6bb974298U, 0xbe78a029bcf78ceeU,
  0xbc30ee7cbdbbd914U, 0xbd6b45693e593dd3U, 0x3ecc46a9be008d68U, 0x3d8f5ce53d32a20bU,
  0xbd95ebbebda31ebbU, 0xbcc94a37bc3b264eU, 0x3e7c6298be2c38d5U, 0x3d8d3a273def6664U,
  0xbcbe86343cb4b349U, 0xbdf147b4be0bf4d4U, 0x3cfea8a53da7ce38U, 0xbd0397153e24cc5cU,
  0x3d1ff0a93e0cb3a3U, 0x3e53f5483bbd38a6U, 0xbe38a563bd37ca77U, 0x3cb527d5bd51da2bU,
  0xbd8b028b3cdcb577U, 0xbdce408bbe641317U, 0xbe37a9dcbe223913U, 0xbc86aba0bdd71970U,
  0xbd7e3762bd8badecU, 0xbe1f1eaabe8b60e3U, 0xbe33b4513d5ffa9bU, 0xbd1b0163bda0314cU,
  0x3e08c3f73c5c7b6cU, 0x3d0505f23e8ab5cfU, 0x3e5553623d99fe0fU, 0x3e670b033d339002U,
  0xbce642673dcf942cU, 0x3c914dcb3dcf64beU, 0x3e278ff1bd842405U, 0x3d835e313e42353dU,
  0x3de80edfbe6d46faU, 0x3e6d1d0fbb8b442bU, 0x3dba577dbdf45201U, 0xbdee64a7be204136U,
  0xbe24b3453c2ba628U, 0x3db1084fbdbb8245U, 0xbd50fe63bc5b79d7U, 0xbce93bb0be6c81beU,
  0x3ba441f93d54e4bcU, 0xbccc3cd1be8e25efU, 0xbdc6ef12bd0f7d89U, 0xbeb640fabe10218aU,
  0xbece080e3da2cc4dU, 0xbd8040ccbe99ef78U, 0x3c71260cbe19f64aU, 0xbda29ea83e3bf2c2U,
  0x3de5497a3c57a127U, 0x3e21b6d3be5b27fbU, 0xbc5520943d20daf2U, 0xbd5c0e483cf17983U,
  0xbc9f1045be56c82eU, 0xbd0218fc3d55d32eU, 0x3ddc49fe3e616833U, 0xbd9494b3bde06aacU,
  0x3e0da528be585e8cU, 0xbdbbadabbdd5f514U, 0x3d994fcf3dfbb65fU, 0x3c26c2dfbe29a852U,
  0x3d6a6db93dff246cU, 0xbd87960a3c061e4cU, 0xbd8b8eecbea805daU, 0xbd7f416bbe013ce9U,
  0xbbacb2463dd02743U, 0xbe3deebc3d08cfb2U, 0x3de089773bd21467U, 0xbdea8b98be5256a6U,
  0x3e9d51c9bd8bc115U, 0xbdcd2dd0be143f8aU, 0x3b214a733dbb1460U, 0x3e2458943dfb5d1bU,
  0x3b2a0845beb5376cU, 0xbd8ba1083c60a894U, 0x3d7910f43d0a7df3U, 0x3e04223fbe27d4e9U,
  0xbe01a86cbe7536b0U, 0xbb7e0fcbbdfc2f35U, 0x3db1c26f3da09528U, 0xbddfa9943e09f734U,
  0x3d978d7dbe8b6d48U, 0x3df37ce43e8fdf57U, 0xbdf6d34ebe7d3395U, 0xbd98637c3e4c44daU,
  0x3d52830ebe38aa37U, 0x3d20af543dfb65b6U, 0x3d8c0ab03d7c3db5U, 0x3e3f4238be37db97U,
  0xbe8c1d8a3e3aa28dU, 0xbdf27177be194a39U, 0x3e5632d5bb920ddeU, 0xbdd8f9c6bdc09b07U,
  0xbcc54403be4a939dU, 0xbafd19d3be692b17U, 0x3e3c80eebde2e4c0U, 0x3e8c7da03d02f222U,
  0x3d2ceee93c5f82daU, 0xbd42fadb3d3a38ffU, 0xbe5de504bd94b28cU, 0x3d3747ca3e1931f6U,
  0x3e8432aabdfcd773U, 0xbde871d63d4a3610U, 0x3db76a2bbcf4a4daU, 0xbdd464d53e65a80cU,
  0xbe37937abe6eb219U, 0xbdb793e0bca817f4U, 0x3d752584bb6d4cd6U, 0xbb93d015b9467f65U,
  0xbde3e25e3d41fc1dU, 0xbd99ce16bdcb9ffaU, 0xbcf49a6c3e81e8ddU, 0x3c07e755bd99122cU,
  0xbe4450f53dda1ef6U, 0x3e2212c33cb01b3cU, 0xbe19d619be0b288bU, 0xbe8d4f66be6dd061U,
  0xbdad85a13d08ba6bU, 0x3d01a2133dfe15eeU, 0x3e0b0e503da39ebcU, 0xbe9150eebd7b088dU,
  0xbd571ed43d36b282U, 0xbe922373bd352d54U, 0x3ca8a8d6be9c017fU, 0x3d9849da3d4f5d8fU,
  0xbd24a092bd4fdb7aU, 0xbe3a7379bdf81b04U, 0x3c811e833e21000fU, 0xbdf62e893e803ffeU,
  0x3db9d8eebe1012b1U, 0xbe16fea13d82c21fU, 0xbbdc91c4be0c2e1fU, 0x3aa7b006bd630efeU,
  0xbe83f0ce3e080c53U, 0xbdc1f4aebd732693U, 0x3d589a203d09fa08U, 0x3e070605bd83a1eeU,
  0x3e449a3b3dd7cf94U, 0xbe210a2abe0b6a2eU, 0x3c9356023d81cbc4U, 0x3bbfa88abef195c2U,
  0xbd8750aabe1c6628U, 0x3e82f9a13e092a62U, 0xbdb60b24be8a27a5U, 0xbe16a352be719c9dU,
  0x3e78e1fabd6aacc1U, 0x3e523c813d3bc81bU, 0x3d1c69aa3b5442d1U, 0x3d434aa63d91103dU,
  0x3e78729b3df98734U, 0x3e86c8723ea5244dU, 0xbe1c38d5bc530a06U, 0xbeaa31c0be73567eU,
  0xbc93ca453e86a0aaU, 0xbed2f338beb16e0cU, 0xbdce6e873d0b55e3U, 0xbd9830b43dd8dc56U,
  0xbe99b37a3decc871U, 0x3e5c6dd3be6c2b05U, 0xbe5605b63dda12f9U, 0x3e4ee66e3d58d4faU,
  0xbdbfda3cbd9f0458U, 0x3cbfacb5be6ca028U, 0x3db294e63dc6f02bU, 0xbe3f55b9be0bb5d5U,
  0x3d313da73b8430a6U, 0xbcf1f4e0be06e197U, 0xbe9659abbdbf36b6U, 0xbde79b99be99b719U,
  0xbd9baaf23d1f6978U, 0xbcc0a310bd977e2fU, 0xbe6be7bfbe6e8e77U, 0xbecbc19cbe899a81U,
  0xbe22de0fbeacf7e8U, 0xbdd7ead1be3e813cU, 0xbec96961bd8e4088U, 0xbe20edc9be65f41aU,
  0xbc515395bdb711fcU, 0x3eafe9f63e0b5380U, 0x3e73a806be54dcd3U, 0xbdeb21f9be5ecf4cU,
  0x3cd1ceaa3e72f01fU, 0x3c828fcd3dfef7baU, 0x3d71f1573dd9729dU, 0xbde8e1c0bda4c884U,
  0xbd47077f3d71c353U, 0xbdf60ca6be21057fU, 0x3dfd39aa3e429f02U, 0x3d9599c3bc28b3a7U,
  0xbd449d023ea6dba5U, 0xbe7a209e3dfafa5eU, 0xbdcd67b1be11b3dcU, 0xbe0080e4bb7ff272U,
  0x3ce6a6afbced48feU, 0x3e68ec10bdd68bd0U, 0x3da8aae23d6dea3cU, 0xbe211056bcf5b18fU,
  0x3de59f7dbe097695U, 0xbb1f96563e809b6eU, 0xbd4ea5883e2c6521U, 0x3d8c0769bdd9be03U,
  0xbd9b2d3c3def5ddbU, 0x3e7e69773e765adaU, 0xbdaca160bdc0e9e9U, 0xbe1252cabdf0c073U,
  0x3cac6ca73de3e4c9U, 0x3c9476813d424864U, 0xbc97af353e6b1990U, 0x3e323fa93de1d675U,
  0x3ddfc990bd90a248U, 0xbcf5b6803e723fb2U, 0xbcfaf640be85e357U, 0xbdcc36253d0f504eU,
  0xbe4af64abea6554fU, 0xbe5403c4bcf416b1U, 0xbe0daf103c8e7820U, 0xbe222621be2df7a1U,
  0xbdef3d9e3d0da4cfU, 0x3de9f42ebe3f40f9U, 0x3d864956bdfd20bbU, 0x3c79fc733dba9383U,
  0x3dab42293d5b5fe7U, 0x3d3d2de2bda74161U, 0x3e91db483e15ed6dU, 0x3d7b5faa3e12db2cU,
  0x3d2a7c413e355d26U, 0x3d708d2d3c257635U, 0xbc7cf6c6bc75edddU, 0x3ea70d86bdfdc14dU,
  0x3db35471bd9a734dU, 0xbe10e1b7be771b28U, 0xbdc78ff0be8ac9feU, 0xbda8f6cbbe81ed8aU,
  0xbe036af63deea039U, 0x3dc31c0e3e69ccebU, 0x3e65bfebbe33386cU, 0x3e5f08eb3df3baeeU,
  0xbe6dd82f3d088cb7U, 0x3ce888cbbebab880U, 0xbcf63dafbd846b1eU, 0x3e4ae95e3d757407U,
  0xbe93bfb83c6d19acU, 0x3cdc62643e894ea9U, 0x3df4c486bc9ab78fU, 0x3df568adbd94c700U,
  0x3ddb48e13e1d82cdU, 0x3d6f6764bd69a461U, 0xbd4ef1653e4a8729U, 0xbe71ae0cbd25e3feU,
  0xbe7ad9153cc9bb7aU, 0x3e1e5f25bea2b82aU, 0x3d7cdd483dac53b5U, 0x3e190051be402dadU,
  0xbe166ee9bc737f21U, 0x3d0267e6bd4dba5aU, 0xbdabe5383e24860aU, 0xbe331658bebad56cU,
  0x3ddf2b82be42f6c2U, 0x3e6c15363dbde848U, 0x3d25a08bbe3790c8U, 0xbe24416f3e32c7d9U,
  0x3e2adc703e158f66U, 0xbdf5dc4bbca86bc6U, 0x3e018431be1848c0U, 0xbde42ae13d1d6c21U,
  0x3c96cbfcbdbed217U, 0x3dc4e4143d644ce7U, 0x3cd69989be104f5dU, 0x3dceac49bca2a95fU,
  0x3e6e78183df5768bU, 0xbdceed2d3e8bfcd3U, 0x3deb71b83da46c31U, 0x3e0be5b83e1f1998U,
  0x3e4a347d3ec49a46U, 0xbe3c59213db5a3fdU, 0xbe22e672bd10602dU, 0xbc330767be55a9ddU,
  0xbd418f90bce244e1U, 0x3c9236a43e8227e8U, 0xbdf4eff63e063c39U, 0xbdac2a233da475e5U,
  0xbe727a29bd27777dU, 0x3cd7a7e6bd92aa7bU, 0xbdee18a8be4abe84U, 0x3e1580ae3e853139U,
  0x3e58ee463e34e63fU, 0xbcdebf333d4cfcc2U, 0x3c48a39cbc8b438aU, 0xbd6c39c2bdfc1518U,
  0xbe949382bdca8380U, 0xbe40a5debe2ac6fcU, 0xbd045b8cbd99ac8bU, 0xbe59e154bdcb36b8U,
  0xbd3b1558be4dcb69U, 0xbeb1025ebdada397U, 0xbde6ab5b3d826a2aU, 0x3b6843b43e980036U,
  0x3c540bfd3d81704aU, 0xbaae09fe3e0a2032U, 0x3e80382c3e2dc1f8U, 0xbc73328dbd8c7b56U,
  0x3d9319cc3d9894b6U, 0x3e17cca6bd8e0b5dU, 0xbd5344013eafb5b4U, 0xbd9e86be3db1f92bU,
  0xbe801c653db773c9U, 0x3c8f843d3e0402c3U, 0x3d8b3a66bd89faaeU, 0x3ca4dea23d6a8ce2U,
  0xbe1a0480bd676f0eU, 0x3e21c79c3ba12e88U, 0xbbc2d040bec65aecU, 0xbda74a9fbd48bf48U,
  0x3cfbced53b43b943U, 0x3ac2a8623d62c78cU, 0xbde67f6d3e3d92dcU, 0x3dbb2024be42167eU,
  0xbd3d53efbd7a1678U, 0xbde56b423e1cb6b7U, 0xbcbbda24be9e84e0U, 0x3df378703d654ea9U,
  0x3dc5a3ee3e4773aeU, 0xbb9df36c3c6b4770U, 0x3ea15c633d2b5b78U, 0x3e5ae0d43e925825U,
  0x3c744536bd97f1deU, 0xbe7ec6dabeb3af50U, 0xbe00596dbde7cc23U, 0x3e746de9be8e66dcU,
  0xbe6f90ecbd161e52U, 0xbd56abffbdf39f05U, 0xbdd6db22be3918a3U, 0x3d27e3493c2ce4e3U,
  0xbd615447bdd5342cU, 0x3d8f5231be092adaU, 0x3e008c7abe10bda9U, 0xbe2f6711bd95ba57U,
  0xbd1ade8abe8a86f7U, 0x3dfb5e42bd2aa225U, 0xbe042ff3be3f87c7U, 0x3e02dee9be7466afU,
  0xbd56b37fbd89f01bU, 0xbdc822ff3d867ea5U, 0x3da081bb3e0b78caU, 0x3ea6e41abc78a4d4U,
  0xbe3e88843e15fe0aU, 0xbe81df12bcaaada9U, 0x3d6a93353d26bb15U, 0x3e731bd53ddfc96dU,
  0xbd7fbe91bcc66028U, 0x3dba2df8be353b5dU, 0x3e6f43e73c19a41aU, 0xbd8f9d083e03bb4eU,
  0xbe179018bbe7e602U, 0x3d0e550d3e41bb7cU, 0xbc8763523ded1c34U, 0xbe8d29943e44876eU,
  0xbe52e986be96f1c5U, 0x3e493a293d9c42a0U, 0xbdac86da3ab00c47U, 0xbd2372dabeb59308U,
  0x3e213a253d132cfaU, 0xbea0511f3cbedd01U, 0xbe6ab836bdb0bb80U, 0x3db3d0fcbc93ab6bU,
  0xbe2ed924bcbe9785U, 0xbdd56c4ebdba8b9aU, 0xbd6707283e61331dU, 0x3e15548b3ca0ef4cU,
  0xbe28d993be9eb1e2U, 0x3d75fdc4bdaacbcbU, 0xbe99acec3deb111fU, 0xbe4f8746bdc253afU,
  0x3d689c40be1955e7U, 0x3e1b36253d844287U, 0xbbf720efbdaf1bfdU, 0xbdfb921839942bfaU,
  0x3d4e83a53ddcef96U, 0x3d03b78b3bc5ae23U, 0x3e2074f2bd71a5a2U, 0xbd975c58bce460b5U,
  0x3d91fbf7bd1774abU, 0xbe6f3e0d3d849257U, 0xbe15345a3e88a316U, 0x3d186321be606e4bU,
  0xbe8fe541bd4662cfU, 0xbeaefe1ebd1a2c0aU, 0xbc0152fbbd9f224aU, 0xbd3b927e3ec6ddbcU,
  0xbebf896abe01db1dU, 0x3e7bc7493bf45c81U, 0x3e6dee4c3cfe4153U, 0xbdcdcaf0bd8bdb64U,
  0xbca6c40bbd179f80U, 0x3dec19b63e87e1d2U, 0x3dfb00263d9d67e1U, 0x3e3e4bbf3e732da3U,
  0xbcc131b2bd52b658U, 0x3d40d0f7be4b1123U, 0x3e15d6c7be5e405cU, 0xbd2f67603dc7d5eaU,
  0x3c1910d6bd4548faU, 0xbe2bc3273e3fb2feU, 0x3d7ba91cbe1a4151U, 0xbdded8d6be705e72U,
  0x3d9ea8d7bc5a937cU, 0x3de7ee4bbd5bc92bU, 0x3d871e0a3d235a7fU, 0x3dbbee103d9568d5U,
  0x3d5d9412be532e76U, 0x3d8e79a3bd8f1eb1U, 0xbc93f9d4bea6b42cU, 0xbcb4f9263dfc5712U,
  0xbd9795d3bc3c347aU, 0x3deeefcf3ccd5089U, 0x3cc5b520bd4bc1aeU, 0xbe0d4ff4be4802f7U,
  0x3ce2df27be1f146bU, 0xbd8bbe363e8e03c0U, 0x3e7eadfbbe23d071U, 0x3d8d33b2bd177a59U,
  0x3eb88ebcbcb6b1d8U, 0xbe83fc493d56bbdaU, 0xbd2c4dec3dfd0bdbU, 0x3e1830cdbd949193U,
  0xbeb96a5d3ecb4245U, 0x3e7b9f1ebe44c640U, 0x3d350d7a3e0a51dfU, 0x3d75523fbd275af0U,
  0x3ee0f1f73bc4debeU, 0x3d4a650d3e0c37abU, 0x3d3aea4b3b1c47cfU, 0x3e0ac205be18c26cU,
  0xbe5d19fb3e1e4248U, 0x3e20c2563d838051U, 0xbcc501913d226012U, 0xbe92b9243e959517U,
  0xbbc9b08cbea384bfU, 0x3d05c5fdbea3009fU, 0xbe409bf33d84917bU, 0x3e687310bca3d298U,
  0x3d8b5aa73e94e1c0U, 0x3e0cb0d43d1e61f1U, 0x3eb05e803d2e313bU, 0xbe023e09bdee0f0aU,
  0xbdfaec2dbe3db35dU, 0x3db8ef023c0baa95U, 0xbdbdee573ddc4096U, 0xbd767d66be83c109U,
  0x3d894e90bc69cd25U, 0x3d6d9d6a3d920c42U, 0x3e4f4bd13e5ab731U, 0xbde751093e720e3aU,
  0x3e615a263df18525U, 0xbd8f173d3c405b15U, 0xbcaf81363dda59d1U, 0x3d70dd06bdc929ffU,
  0x3db75241bef4fe3aU, 0xbe7207413ea48a8dU, 0xbdf07dbfbd4f8535U, 0xbe27cd28be0c0d3fU,
  0x3e699bad3ca4545cU, 0xbb72c55ebd8b29ddU, 0x3d923af33defeae3U, 0xbcc53cdb3be8666bU,
  0x3ce86a99be02058dU, 0x3df468e8bcd3592dU, 0xbd886787be02eb51U, 0x3dd35d56bd891962U,
  0xbd42b209be067b93U, 0xbc89b2893e103024U, 0xbe6ffaa1ba1b1633U, 0xbe7d8435be6e4451U,
  0x3eb8044e3e448ce4U, 0x3def23cb3df94dfcU, 0x3dc0a60ebdf79585U, 0xbd1f7e8a3e3176f4U,
  0x3e1fbbaabd565d94U, 0x3e29d0aa3ddfc53eU, 0x3d43ddf6bcae077dU, 0xbe26f5b0be853bbaU,
  0xbe4420eabe5067feU, 0xbe66777cbe3b7af0U, 0xbde2a383bcc26ca0U, 0xbc5d66c53ca380dbU,
  0x3d754aab3c487ef5U, 0xb9bec0923d662ce5U, 0x3c33d4d53dc270ceU, 0xbe529fe4bdfc426cU,
  0xbe03dba23da26c45U, 0xbde9ad03bcf99896U, 0x3e05ebf2bc2aab19U, 0x3c4ff0893e8c5d90U,
  0xbe237bb7bda2827fU, 0x3e8b9015bdbb510eU, 0x3e4809bfbe15e5f9U, 0xbda4761abdfbceefU,
  0xbe2790d1bd40ee9bU, 0xbe245b5fbe1488b5U, 0x3e0a1e833e67ac90U, 0x3d29bff63ee0cf8eU,
  0xbd85db233d930b1cU, 0xbe84130cbefe2fc9U, 0x3bdc03c8bd70428aU, 0xbe6305ce3d0526ccU,
  0x3c37c5473d08a120U, 0x3c2e02f3be1ab3aeU, 0xbe689f4bbe67b820U, 0xbc30582ebd81edb8U,
  0x3e0fa265bcd283abU, 0x3b6e86ccbd85d947U, 0xbbe8f328be724b40U, 0xbbde8a63bd9d26c3U,
  0x3db46a293da93341U, 0x3e38b784baa45931U, 0xbe3f57213cfa687cU, 0xbe7ef3c9be2bae9eU,
  0x3e53423d3e1bb008U, 0x3e7155f03d35431bU, 0x3dfb6356bdc92973U, 0xbd114a133e8035e3U,
  0xbcbd309d3e11d789U, 0xbcf4238d3d94e35bU, 0x3ddb9e5f3e289b5dU, 0xbd8ad1edbd1ca4b7U,
  0x3c315adfbdb2e1ccU, 0xbdc9daad3d921da8U, 0x3e8ace403ea58139U, 0xbd996f4fbd3cf6b9U,
  0xbe511dcb3dff4a18U, 0xbd0c0d89bc6111c7U, 0xbc1a0bdfbd1a6d77U, 0xbd84c904bddb677aU,
  0xbe20bb25be05076bU, 0xbd3ca225bf119f3dU, 0xbd4a851b3e0d2ff5U, 0xbcdabf15bdb40dc2U,
  0x3d02aa55bde06a54U, 0x3e288798be56fd34U, 0x3dc86a3e3d006dafU, 0xbe61d21fbe3ab07fU,
  0xbc8fcea1bdb81d33U, 0xbe6973e73e1b6ae3U, 0xbd8fb302bd902f18U, 0xbcebd425bb54b058U,
  0x3d11c55a3d989b31U, 0xbbf0664d3de66f81U, 0xbd19a7f7be02fb3cU, 0xbeb669243be781e7U,
  0xbd5e19c8bd83084eU, 0xbe615904be803e12U, 0x3e66282d3d56b5eeU, 0x3ea1f2833d93c750U,
  0xbde39293bdc707d7U, 0x3d2696ccbd81e78eU, 0x3cdf875f3d94dcbdU, 0xbe4889f03e281b4bU,
  0xbe44a02fbe131194U, 0x3d67c851bc7d703dU, 0xbdf61b92bd3d72b1U, 0x3de0e52abe072524U,
  0xbdc63cf13e5403dbU, 0x3bd3e41b3dd0f4a3U, 0xbea89470be22cafdU, 0xbe84af22be48abb8U,
  0xbe834dcfbe10c2b0U, 0xbe98ebfa3e01f110U, 0xbebc3af93d88cff1U, 0x3dff41abbe3db07bU,
  0x3dc87a3ebe4f7393U, 0xbd6f1490bdc98ae4U, 0xbd5d5ff03e70b938U, 0x3c9dfa7d3ce733dbU,
  0xbe9faae83cb1ca54U, 0xbe7c5183bd7bcfe1U, 0xbdb6fe11bb86649dU, 0xbc5c0c2bbd23b1a7U,
  0xbe7f1a5dbe7d7c0eU, 0xbdfa5044be260830U, 0x3d91221ebe0f22d7U, 0xbccddc6ebe474185U,
  0x3e579bc13de1acaaU, 0x3d8ddfda3e463029U, 0x3ddad05f3cec8e38U, 0x3cbda2163d1523c5U,
  0xbe93f01ebe2c0892U, 0xbe9251cfbde28fecU, 0xbe3b3c29be757950U, 0x3e5d479e3e36ed71U,
  0xbbe2df023e16e06aU, 0x3e2e98c43e66600bU, 0x3e1d33c7bde4a419U, 0x3e100d7c3c833a32U,
  0x3e13783b3e0ef135U, 0xbddf3140bd103eb0U, 0xbe26329cbe648e3aU, 0xbc973f8fbd741613U,
  0x3e8e110f3e343b0dU, 0xbd6508a73e110cd7U, 0x3d0caea9be959260U, 0x3e9719603e032668U,
  0x3d3090fcbd7ae57dU, 0x3e071a933dba4d62U, 0xbe0d9aca3d0af398U, 0x3d93dd2ebe6623c0U,
  0xbd84ddbdbdcb9293U, 0xbd0d92c63dc03ba0U, 0x3cc9f8c43c8343c6U, 0xbe0d9bfb3e22a0a1U,
  0x3e0848dcbe0d304fU, 0xbdf31da83d3b0c37U, 0x3d8cf6733d7e468cU, 0x3d93eb5e3c6841edU,
  0x3beaf985bd999b58U, 0x3b02904dbda053cdU, 0xbe25c3763cd20a21U, 0x3e38a91f3e0523feU,
  0xbd8b03773d394302U, 0x3ec849143dcfa3a5U, 0xbc3a9635be2613e6U, 0xbe67f4a2bd57128fU,
  0x3e8f1c313e4c62faU, 0x3d7875b53e20dbaaU, 0xbe46e597be59f87aU, 0x3da28e0fbdd7d6d5U,
  0xbde9c76abe578634U, 0xbdb642a9bd90a477U, 0x3ea824e3bc951cbfU, 0xbe6b51b43e9538bfU,
  0x3e0be50e3d8191ecU, 0xbe2e08d8bd2ee6ffU, 0xbe78708f3e1fc74cU, 0xbe96a546bd9c53a2U,
  0x3e7fa5efbdd8faa1U, 0x3cf93a8a3a4c6c1bU, 0xbc3e14173cb37f1fU, 0x3d9b11f83df0f040U,
  0xbc8d18b1bea06c10U, 0xbe055d253d12b8fbU, 0xbde5ef753bcfd1c0U, 0xbdb0d0443e5bd243U,
  0xbd048bb7be0edcddU, 0xbcea557e3e830824U, 0xbd09efebbdeb3075U, 0x3d5bee283d8dbd74U,
  0xbd7f9ffe3de71922U, 0x3e69db7b3e29af35U, 0x3b69269b3daa48a0U, 0xba8aa4473ea55021U,
  0x3ea1a0033df724f9U, 0xbeaf5af73cb186ffU, 0xbd180079bc8c29bcU, 0x3dea03e03cbd76c4U,
  0x3d2c10d53e65169fU, 0x3d034058bdd90078U, 0xbd66e3543e45acc2U, 0xbdb787513e8e8c7dU,
  0x3d2504123e2b281fU, 0xbe85855dbcff1df4U, 0xbe639a42be318fb2U, 0x3e182d1abc82ab83U,
  0xbe330ce4be240dfcU, 0x3cc9a3c93c6538a8U, 0x3e2cc1b1be0057f3U, 0xbe281854bd1f088aU,
  0x3e1079d03e7efd4dU, 0x3e90ef8e3e069473U, 0x3e478c1a3e90124eU, 0x3c8573be3e00f941U,
  0xbdaf98ebbe067a18U, 0x3ea40821bdd53d89U, 0xbd0880abbcadca8bU, 0x3e0895303d8b66d7U,
  0x3ce897cdbce58211U, 0x3df79724be71bf6eU, 0xbe5bd50cbdfd84a8U, 0x3e61e7973dbaaf32U,
  0x3e73db60bd4db4efU, 0x3e0db7ad3db843f8U, 0x3dc87456bb31dd6dU, 0xbe61671a3ac59ab6U,
  0xbd45ae623e7f1afbU, 0x3d93141ebd2eab72U, 0xbc7d50283b0a72f1U, 0xbebf8bc3be762310U,
  0x3c5c5c7c3e35c747U, 0x3de97cd0bd5daf81U, 0xbc60572f3e31571aU, 0x3bf1c2e63e958775U,
  0xbdcbba6bbe077fb0U, 0xbcbf0cec390fc715U, 0x3defa445bc2346e9U, 0xbdbb3f1cbdc36c04U,
  0xbd9ab1bbbd832d24U, 0xbe169e61bd2e4c8bU, 0xbdae7c913e2654e7U, 0xbe89c6a4be4fc387U,
  0xbe2218d0bda33cc7U, 0x3e824cf53dbca221U, 0xbe349e4e3d269dddU, 0xbe461de6be917b75U,
  0x3e7a8e41bd5350d3U, 0x3a44779c3e1179f0U, 0xbe2a49b3bdb76626U, 0x3db1bd233bf70952U,
  0x3d7b0ef8be19d235U, 0xbe76b86fbd9d0682U, 0x3da2f4d8be21ef68U, 0xbd85dd9bbd2a8d67U,
  0xbd802f22be1eaa60U, 0x3c989fdf3d7b5e26U, 0xbd307147be558b62U, 0xbea16c5b3e281926U,
  0x3e21b196bace9357U, 0xbd49173dbd8cf007U, 0xbdad1aa13e3a2864U, 0x3db893e13d2c2a7eU,
  0xbde58b9fbc87edbbU, 0xbe19e15e3dbd7bdfU, 0xbe1ef0fd3e1c22ffU, 0x3e833d663e3351d6U,
  0xbe016ebabe592d9eU, 0xbe0b24fb3ccb29a3U, 0x3e9d559c3e1ad418U, 0x3e0cb11bbd886dbbU,
  0x3d50d2443db7d209U, 0xbdf37380be849d48U, 0x3c6750aabea84a6bU, 0x3c11d2c1bd974bf7U,
  0x3c66a611bdbd2cacU, 0x3c5f587f3e056e25U, 0x3e1cedacbea12ab5U, 0x3d595b31bdcf49a9U,
  0x3d58d6f0be27589cU, 0xbd6d69e4bdb55332U, 0xbdb1f407be83e72cU, 0xbdcf77d1bd73f450U,
  0x3d84b02dbe54d09aU, 0xbdd4ae1c3dfbe31cU, 0xbe00c913bccc6acdU, 0x3d8168c1be56a37aU,
  0x3c9cb7b83c721c3eU, 0xbe27e2873e878dceU, 0xbe01832bbe55fa26U, 0x3da4ae653c45f891U,
  0x3e72c2bdbdc52201U, 0xbe6fbf963d88d01eU, 0x3e1f6ba6be36402bU, 0x3dae61713e060f4bU,
  0x3db2b0d23dff61f4U, 0x3e965c2a3d980c92U, 0x3d40ae98bd835499U, 0xbe3ab915be1ed1f5U,
  0xbdddc4eabe06377fU, 0xbc2213d7bde26861U, 0x3e231f823d835bd9U, 0xbda2150abc74169cU,
  0x3d910e57be6aa2a6U, 0xbb7555903c3abbc5U, 0xbc33ab233dc08810U, 0xbda0582ebdcdede6U,
  0x3dece69dbe44d809U, 0xbe8531853dcbd744U, 0x3e0207493e686a99U, 0xbdf59fa9bda4285bU,
  0x3e7e72fb3d46c874U, 0xbd8ee5af3e94dac2U, 0xbba7b9413b6414e4U, 0x3c3f9c243c2ca2e4U,
  0xbd7ebe083d6bf68eU, 0xbddb45debc8aa2a2U, 0xbe18def13e728878U, 0xbce074a43e55f972U,
  0x3ec67d5b3df515f1U, 0xbd121d76bdbedb21U, 0xbd28a819bcc666c1U, 0x3d90bde53cff9a50U,
  0x3e4c29afbdc425e6U, 0xbd28c78d3d4af622U, 0x3e415a7e3dc1f83bU, 0xbdaed5d13dcd61e2U,
  0xbd74a21bbe468e3eU, 0x3dac8453be88ef1cU, 0xbd1ae865bd2e6e1aU, 0xbc990c023cfc6c4bU,
  0x3d87038bbe7d03e7U, 0xbe8b45f93e95c9e0U, 0x3dba6f8f3dd1d68eU, 0xbe21a545bd2c10d6U,
  0xbd1d05483d40d6a7U, 0xbe2bfc3c3c4ad640U, 0xbe0dc2043d06220aU, 0xbe038ce3be6c5a72U,
  0x3e25f9fd3e75c1e0U, 0xbe1f03ea3e213d70U, 0xbe076e30be63406fU, 0x3e099a5ebe1bb660U,
  0x3e259f153dc9ebe2U, 0xbe828d33be94d255U, 0xbc591bae3dd47a15U, 0x3ed13bdfbdd68f23U,
  0xbe06f10f3d84ae0dU, 0xbdb5bf73be13dda9U, 0xbeaf7f12bb8cce7fU, 0x3da105ce3e0ad1a8U,
  0x3d15ea653ca834f7U, 0xbd3c8a1e3e09e098U, 0xbe339f213d91071fU, 0x3e8dc62a3d9b77f5U,
  0x3dc75ce43d1c7bf7U, 0xbccad4bb3d953d45U, 0x3d7961b73e286f4bU, 0xbe42e29d3d4ec88aU,
  0xbebd5930bec81854U, 0x3e0709353de579bfU, 0xbe32a1383ca7c3d3U, 0xbe0bcbbebd6f4329U,
  0x3e4c70e63dc3a859U, 0xbd422326bcfb78dbU, 0xbe50ebfabeac805aU, 0xbc5bb305bd739d2cU,
  0x3dca20b3398e7fb2U, 0x3d30b243be061bb5U, 0x3afe9befbe386070U, 0x3caabe25beac0f24U,
  0xbdb64867bb00c3a6U, 0xbd0325d0be0534a1U, 0x3cfb108c3d52d965U, 0xbd9d33613e10205dU,
  0x3e3fca58bd4bd38fU, 0x3dfa7097bc292e8cU, 0x3df22f103d7cd63fU, 0x3dcdcc9ebe08e1c2U,
  0xbbd9743abd57fe91U, 0xbd0debd9bda62ed2U, 0x3e098c663dd9d916U, 0x3dc1d75b3caa1c07U,
  0x3dba23333da96a09U, 0xbdcbd963be4a7431U, 0xbdf25b423cdb233aU, 0xbea72c03bca49396U,
  0x3e4a4905bdd9fd09U, 0x3e0b7b6a3d4985e2U, 0x3e62ea123e1907e7U, 0x3e43531fbde224f8U,
  0x3d8a36c43e256d4cU, 0x3cb58b0a3d4bcbb0U, 0x3d86596e3daf5a03U, 0xbd894f70bd6b8d59U,
  0xbd7bbb43bc49be2bU, 0x3db178f2be082953U, 0xbd9f9eadbe35a2a3U, 0xbd149c20b9c016c3U,
  0xbe28e1e2bd3a6e9bU, 0x3e4216c0be0512fdU, 0x3e1fbafdbe1b2d0bU, 0xbd8ff9e6bc77f777U,
  0xbe398cc0bd981378U, 0xbe8a4a7cbec5fcfdU, 0x3da83a07bec0c7f5U, 0x3df033283e2cad51U,
  0xbbbd7343bb301675U, 0xbdb997c13e1c8828U, 0x3dec7a583d6afc21U, 0xbe0714113d00ce09U,
  0xbcd10f56bcf43985U, 0xbdd0849fbe837ae2U, 0x3dc9f1d23d9b5451U, 0x3da35dff3cf5aab6U,
  0x3d9a92df3d3d5939U, 0xbb8b536e3e9b3cebU, 0x3e16dc973e4697bcU, 0x3e69a420be5c550eU,
  0x3cc3ba013e124ca5U, 0xbde4e322bdb9278eU, 0x3c47316d3c051b42U, 0xbe0228793d4ecd2eU,
  0x3dcb8d19be92fb38U, 0xbd815cbabe86544fU, 0xbe0f1f923d6a09a7U, 0xbddcd8123c925cdbU,
  0x3e612046bc5d8f3eU, 0xbea6550ebdd336efU, 0x3e2057503cfb027cU, 0xbdf99794bbe9c641U,
  0xbd6ca6c4bd5d8912U, 0x3e278dab3e23664dU, 0x3e7f50373e018474U, 0xbe34ff09be94dd64U,
  0xbe0d81893e22a922U, 0xbd3bdda13d4cecebU, 0x3e0d86c83de9bdacU, 0xbdab0e46bee431d9U,
  0x3e36340ebd5f3a61U, 0xbe39d684bd065ffeU, 0xbd777ba33e9f3094U, 0xbbb034b7be883cabU,
  0x3d0582b43e1190a5U, 0x3d95d1ff3e2d7e57U, 0x3e666810bcff6459U, 0x3cdbdf30bda27bcfU,
  0x3e053affbdce6c1dU, 0xbe680dcbbd8e8c09U, 0xbd0839e7bc276d2aU, 0xbe86b0083cb56791U,
  0x3e1334fd3db972bfU, 0x3d9407553d61e53bU, 0x3d5ff20f3e9364f1U, 0x3d0d16ecbe1548f4U,
  0x3da9b2833e83ad8dU, 0xbd80431dbdfc766cU, 0xbe28db71bd1af2f3U, 0xbe2aedd2bd8774d9U,
  0x3e25129cbe2290b8U, 0xbe014c4fbe2f86ceU, 0x3d782d30bdc7a714U, 0x3e65c6373de715f0U,
  0x3e5a2b1d3e63ba29U, 0xbc7ff1833df72403U, 0x3e1da7833dfa2571U, 0x3e6106ffbdb666edU,
  0x3d829882be275869U, 0xbe015db4bb25d3baU, 0x3e34da363d9ed4d0U, 0xbe80a5c7bc25097eU,
  0xbe87d419be0b4a59U, 0x3e938ae0bdcf8c3dU, 0xbd8b32e5bd9a159aU, 0x3b665a23bddeea34U,
  0xbc9ecfe03d8132e5U, 0x3c9d2e76be24f46fU, 0x3db64b30bdbdfac4U, 0x3d0160b4be172c99U,
  0x3dbb050c3d094393U, 0x3dd368453e00433cU, 0x3cad72003e19932eU, 0x3e00a2a93c055277U,
  0xbdcd2e47bd381429U, 0x3d652ecd3d8dd512U, 0xbe5b6cb1bc58fed8U, 0xbd1a92ed3d9cf327U,
  0xbe36e0b6be37bad1U, 0xbd905210bdbc3ba0U, 0x3d03b7e93d048029U, 0xbd814622bce3b6f0U,
  0xbd6b5b23bdc6b6cdU, 0x3e26f4963d109d79U, 0xbc4f8d533df88c77U, 0x3dd5c5f23dbcaf1fU,
  0x3c73c539bd433f44U, 0x3e234fa63e142fe8U, 0x3d7169543d68f9abU, 0xbe28bcbc3d9ffbe8U,
  0x3d80c4213d9662c0U, 0x3c81fb30be1b832fU, 0xbd4b6a413d9795c7U, 0xbe44601e3ddf500aU,
  0x3e13d7b83e168951U, 0xbe5ab13ebc8976afU, 0xbe4180373db53ed2U, 0xbd79aef93da22226U,
  0xbe0a9bafbdefa36bU, 0xbc13e7a23da7d44eU, 0xbde4ccc5be2687ffU, 0x3daf875abe18168eU,
  0x3d59cab33c15bd90U, 0xbe80f69abd3e1422U, 0x3d8d0e09bdaf367bU, 0xbc8cbaa2bdcc6ebaU,
  0xbe4002723e1cb7dcU, 0x3e096b93bd8229bfU, 0x3c13f8713cfc739fU, 0x3c987fdabda51b66U,
  0xbdbec21e3c829687U, 0xbca39587bd711adeU, 0x3de3b16c3d49a378U, 0xbec0a6c1be33bd85U,
  0x3e13aac8be3fcd7aU, 0x3e52cd2d3d043045U, 0xbe9970d6bd10edb1U, 0x3b7ea9193e50739cU,
  0xbcd46ad4bcab1f22U, 0x3da4a2ef3d8c7840U, 0x3d0fd0b43df00799U, 0xbe85de6c3d297d26U,
  0x3d960870be0cc577U, 0xbb8ef24b3dc318a8U, 0xbdeb3ada3b24574bU, 0x3d8c254cbe2035aeU,
  0xbb99bda83e44028cU, 0x3e678c0e3d930509U, 0xbd93dcd63d534da3U, 0x3e0f23e23e572942U,
  0xbdc8987fbcc8abd8U, 0xbe3219dc3c931b95U, 0xbc9536efbd843acbU, 0x3e73603bbdede020U,
  0xbde2a8f0bd47f263U, 0x3aa43aa43b0ea0acU, 0x3e36e8ddbdbd5a95U, 0xbe1d357f3d06a79eU,
  0xbd068e03bc1830a1U, 0x3dcc6060bd816d4eU, 0x3e4be0f23cb6962aU, 0xbe0b7aa83e9391b1U,
  0x3dfb9c733d2463dfU, 0xbe4d0ef03dcc745aU, 0x3e3ecff53d09f508U, 0xbe74e6f33cd49089U,
  0xbc6a8e9dbe84dc54U, 0xbe21caa33dbbc555U, 0xbe8f1a93bc791f42U, 0xbe46456cbeb4e1e0U,
  0x3dc196b4bc3e6f9cU, 0xbda599ea3dc93a10U, 0x3e8e098f3df7fd39U, 0xbe59ae0bbc88c802U,
  0x3d0db414be658004U, 0xbeaf9a7cbdf5c3e4U, 0x3de1bc9ebe01648fU, 0xbd85e8dc3da9b7c7U,
  0xbe4b87d0be528eb8U, 0xbe00f00abe73c408U, 0x3d0dc22cbde967edU, 0xbe00b357bdbd7cabU,
  0xbe2f563fba2afa4aU, 0x3e3ece8fbe19e313U, 0x389b53a13cc3c4daU, 0x3dac82393e0389eaU,
  0xbd125a463dbabe71U, 0x3e3069303e4f4134U, 0x3d25ded03e868e38U, 0xbe28006bbe1c14f4U,
  0x3c97d9e93c1474abU, 0x3ba68e703e4b763aU, 0xbe012c70bd56de9fU, 0x3cfe5413be6c3fe9U,
  0x3e210c923cb15258U, 0x3e684dd7bdf4cbfcU, 0xbe011e8d3e45cb15U, 0x3d4697dcbe994da0U,
  0x3e172c5c3d4e814cU, 0xbdd8aa2d3e72a6a4U, 0x3ba3f813bcc79198U, 0x3d04fe863da5ebb7U,
  0x3dfdebdabd1964f3U, 0x3e2388fdbdf45f5aU, 0xbe77abd33d01ffa9U, 0x3c567a00bd84aedaU,
  0x3cb2bb8d3db98670U, 0x3e3ba26a3da4229fU, 0xbddeb2e9bd89fde8U, 0x3ddee518bd880a4fU,
  0xbe8be62fbd978f09U, 0x3e040bbd3df4d79bU, 0xbda3a0e3bc96c344U, 0xbcd9f1003bac1dbcU,
  0xbd20b549bd19299dU, 0xbe0b6aa3be0528e5U, 0xbd25d0213ddcd6d4U, 0x3e24c9273ce7565cU,
  0xbe84c0ec3e1392ceU, 0xbd670dedbe3aa0f9U, 0x3d63f417bec04637U, 0x3e971736bec330f7U,
  0xbd0fc24db79d8cfdU, 0xbdfce5e73d755a14U, 0xbe1d658ebd86d930U, 0x3ea101573ce4e1bdU,
  0x3d961e653e1f4eb8U, 0xbd934ab03e27adb0U, 0xbe10d8e5be64da99U, 0x3aae9f2bbd69b9a4U,
  0x3b38198f3e011eedU, 0x3e0c4d83be10245aU, 0xbce2bc4d3d0b0792U, 0xbe5cff3abdcb4e67U,
  0x3ecd0e0d3e9468a6U, 0xbdc8e5c43e2e3782U, 0xbdafe8c23e4d6f39U, 0x3d387673bd9489b5U,
  0xbd67c28dbe1bda25U, 0xbe6675aebdd569d4U, 0x3d727c80bdbc68d3U, 0xbe986181bd4a3fe5U,
  0xbcd1ed873ce96695U, 0xbd6aea0ebe2ba667U, 0xbe548424be1d34e9U, 0x3d3f7db3be58c7bfU,
  0xbdf9f51a3e52cec3U, 0xbe3696cdbd96530eU, 0x3cbde43ebd576a75U, 0x3ca83bd93df9e12dU,
  0x3e07bde3bdadc73dU, 0xbdb878133daa5bceU, 0xbde9f269be2784b2U, 0xbd456b40bd60209eU,
  0x3e73eba8bc1b6a10U, 0x3de357b8be4234beU, 0xbe1086853d2a4101U, 0xbda1a4acbd3f8ebcU,
  0x3bfd67a13df9cee2U, 0x3e6bf3df3e179197U, 0xbe4d90a6bde774bbU, 0x3ae3aeb5bd10da9dU,
  0x3e34bad43e86041fU, 0x3cb99f2e3df99e04U, 0xbe54a7643cb213f0U, 0x3e2cfc4b3ca54fa9U,
  0xbc06a1f33da79af5U, 0x3cb62dd6bd27a2a4U, 0xbe06d740bd815228U, 0xbe5eab2a3dbc93c3U,
  0x3e5bc5f63d82adb7U, 0xbe43e143be14e0eaU, 0xbe911124bcac38b2U, 0xbe942a62be3240f3U,
  0xbe0038523e20f497U, 0x3e42321b3e674158U, 0xbe184cf6bd4bc707U, 0xbdc638e5be184626U,
  0xbcc9e75abc9dbefcU, 0xbbd754c03e355342U, 0xbeb76462be3d9714U, 0x3e4420413bd8bcaaU,
  0x3d86f5733d87aa2fU, 0xbd1ab3bbbd166df0U, 0x3da18ff53e10894cU, 0x3da4315f3bb1b695U,
  0xbea57bbd3d7c9390U, 0x3e3065d5be10e6a3U, 0x3e5093ae3e94adf5U, 0x3e308311bd919192U,
  0xbd5826d9be3ec86eU, 0x3d60fc203da3566aU, 0xbdf14d39be6c03cdU, 0xbe69ee243e04220aU,
  0xbde13b60be0481d9U, 0xbd81eb443e4b31a2U, 0xbd582bff3d7eba5cU, 0xbcc54123bd1a3da4U,
  0xbc6315fd3ddca79cU, 0xbe185afb3ebacf72U, 0x3d9f0b4e3d0a13e4U, 0x3cd26c983cff23a6U,
  0x3dc94c5f3d6cf6cdU, 0xbe3ea7eebe1eb3a3U, 0xbd8c7b90bde84a1dU, 0xbe1545f83d9bf9faU,
  0x3e1f224bbe151202U, 0xbd1ab6313d38bd48U, 0xbe828297bd108dacU, 0xbcd3b17cbe3c61ffU,
  0x3e122513bb91a7a2U, 0x3df8c734bdbddf91U, 0xbe59272c3cd1a061U, 0x3ddedb69bdbef9c5U,
  0x3d9543c33d9b640eU, 0x3e1600bcbcd7ec62U, 0xbded32fabedb96bbU, 0x3d8428aa3d22d051U,
  0x3db6efcc3c9b0043U, 0xbdcfc0febdbd44ebU, 0x3e0e41b93e91e4d4U, 0xbe97198e39c3cc16U,
  0xbe2c257bbd16c14aU, 0x3d964bebbe690f6fU, 0x3df1555fbd263756U, 0x3d4baca5bdb1fcf4U,
  0xbd9a8a04be331c61U, 0xbdd5b013bcf302a6U, 0xbdb472d53dbf3620U, 0xbe3da5473d3ef1ffU,
  0xbdb05f26bc67f26fU, 0x3e5f6ee7be597a81U, 0xbbd567a23e5a743aU, 0xbe57e058be2f36dfU,
  0x3dfe296d3e597ce6U, 0x3e1a4cc7be338dc6U, 0xbdbd72bdbdc12809U, 0x3d8f16723d5c96d4U,
  0xbb8b86403d6f9afeU, 0xbd715cf2bd57d933U, 0xbe4db721bdc439abU, 0xbdaadfad3e43bd76U,
  0xbcb4b923bdcc3650U, 0x3df6ae723e05dd1bU, 0x3d8523c6be0ed552U, 0xbd91a037bda6846eU,
  0xbe583d553db7ebc7U, 0xbe03f0ab3e72e285U, 0x3e63af3c3d1897d0U, 0xbc185e273e1ab344U,
  0xbdf71cf9be891eabU, 0x3ce8a4bebe1dfd80U, 0xbcb911853bcdc61bU, 0x3df93c65bda6c570U,
  0xbe1ecfd1bd57dd39U, 0x3e6191a4bdca09ebU, 0xbda0e907be612cd7U, 0xbde5d0a13c49ae7bU,
  0xbd54e24fbd9b7712U, 0xbe1da32abdc099deU, 0x3cbe8507be0ec29fU, 0xbe86eab93e2bbc80U,
  0xbdca7dc2be168d6fU, 0xbdd708a23e25ef8aU, 0x3d145eadbe979082U, 0xbd742db9bd9b9f48U,
  0xbe340393bd89522eU, 0x3e04cb993a99be74U, 0x3cf049e33d9d4258U, 0xbe6dc8febe8490bdU,
  0xbdc9ea78be04acb5U, 0x3e0af11d3d92bfa4U, 0xbec00a893d83cd7aU, 0x3e02f2b0bb234447U,
  0xbdd392483b420f5aU, 0x3dd3ccf7bda6b886U, 0xbe2eb3e7be072f17U, 0x3d0033ab3e0a1582U,
  0xbd83018ebd903882U, 0x3da517283e91f610U, 0xbe437f833e66aea0U, 0x3d9991cf3d872e4cU,
  0x3c68a785be0c35d0U, 0x3cba38e1be4e533eU, 0x3c4bef00bd9cb9eeU, 0xbdc274fd3e4ff405U,
  0xbcc32581be32b80aU, 0x3cfe7cf13e1ad3a4U, 0xbc6e5b903d6dbfbcU, 0x3e1eab0bbe4aecbeU,
  0x3e13d6fabdc6c94aU, 0xbe0899563d8c91d1U, 0xbd20153fbdb7f430U, 0xbe0fc2ef3e9e1ff9U,
  0x3e7fa08ebdd831d6U, 0xbd8f8d813e0acf9eU, 0xbced018cbe555e2dU, 0xbe7369e3be9749a3U,
  0xbe8ffcb03bf6100cU, 0xbe592262bc38db9bU, 0xb9b47e7cbda97c07U, 0x3d642687bd840ac6U,
  0xbe9c9aeabc9261c3U, 0x3c99e47cbd81abe7U, 0x3daf67a83d2d3f67U, 0x3d9bff853e553063U,
  0xbcee22533d95eb0aU, 0xbcab69e5bb2f580bU, 0x3e22fe32bd9eacbeU, 0xbe084818bea1fa58U,
  0xbcfd997ebeee9d94U, 0x3e13c5293de1285dU, 0xbe1fd2363e3dbb50U, 0x3d80ced5be2242bfU,
  0xbd9598aabe93c5b2U, 0x3e0f76a03d95e068U, 0x3ddb67fc3c6836b8U, 0xbe4b1a2e3d3d9b28U,
  0x3c66b5c7bcbdc6e3U, 0xbe8309b23d95e7d6U, 0x3dc9eda4bd247b26U, 0x3dffd47b3ddd5d2dU,
  0xbd22afe9bdb8e254U, 0xbcbec806bdd936dfU, 0x3d5adf00bde9fdc5U, 0x3ead5701bd08c175U,
  0x3d4cc567be1879deU, 0xbe20ef6e3d23ad41U, 0xbe160c0bbe366719U, 0xbd35f706bdb6b3edU,
  0xbd02b9053d17fb8fU, 0xbe18812f3d80fa8eU, 0x3da06a32bd1409e4U, 0xbd8a038dbeb45e20U,
  0x3dedaf373c006089U, 0xbdcece683d3d03a0U, 0xbe38b387be573781U, 0x3e216b65be135b6eU,
  0x3e76722d3cd2f86dU, 0xbe009425bdeb2556U, 0xbe7ed6553d39a466U, 0x3de6643a3e0077e3U,
  0xbe9bc47b3dec9339U, 0x3ca0bbd0be6dd027U, 0x3ca554273cc2d333U, 0xbd0d5c973dc066a7U,
  0x3d7a48eebd10226eU, 0xbe7d59b93da2f24fU, 0xbdc42937bde1be0eU, 0x3c6f65acbb446387U,
  0x3ddf24523e6d6c23U, 0x3db89eb3bdb25fb2U, 0xbe39f3203e4055f9U, 0xbe053c35bdd9c4c5U,
  0x3d9620bfbd334230U, 0x3e16d9733dce5082U, 0x3e86c0bebe067914U, 0x3caf2c083cd734b0U,
  0x3dccf6c53b9ce455U, 0xbdb329f03db6c1f7U, 0xbe397919bd661995U, 0xbe82ed5ebccdeed0U,
  0xbe9d4669bdd11074U, 0xbeaf4880be895efaU, 0x3e09dbcbbda24d9aU, 0xbdc9a5963bbf3bf7U,
  0x3e8555e7be017ce0U, 0x3d1500d4bc82e34bU, 0xbe323d573ee9168bU, 0x3e7b56debeaf51ddU,
  0xbe2196003cf19568U, 0x3e0e197bbba2d83eU, 0xbe041358be033127U, 0xbdcdc50b3c73f3ceU,
  0xbe5805aebe73a301U, 0xbe3e610c3dbf0415U, 0xbdde99b4bcfd308aU, 0x3e07357dbc8a212aU,
  0x3dfcd619be478ca8U, 0xbe544cc2bdfce4ffU, 0xbac9a16d3df3af88U, 0x3e01f9aabda11c21U,
  0xbd569d903e84ba25U, 0x3db94af63cc88fe2U, 0x3e47c5093ddd1728U, 0x3c8cfedb3d8421a8U,
  0x3e0fee0bbc7aeec9U, 0x3a71afcebe55fa1cU, 0xbd9755073e21c944U, 0xbe4b223dbd33fdfeU,
  0x3e06e51a3e1f2858U, 0xbd8d97bebdab92a5U, 0x3d9b81f9bdf54aacU, 0x3da061743e22405fU,
  0xbe30c11e3d004f4dU, 0xbd5cededbd2c05d4U, 0x3d5b2277bd94abaeU, 0x3e831059bdde8075U,
  0x3c7ae6fa3e01c085U, 0x3d29de91bd4e5f30U, 0xbd6f2f99be14846fU, 0x3d92d5a3be7be3bcU,
  0xbd2d06f53d468caeU, 0xbe5f082b3d3e6fc4U, 0x3dabe4643e542aeeU, 0x3d6ae731bda0c870U,
  0x3e210fc63e070b67U, 0xbdad56673b32d601U, 0x3dea63573cb3b94cU, 0xbe5f8a7bbd0e6a7dU,
  0x3d46e3ac3cd0b5ccU, 0x3dd488003cc0f9f5U, 0xbe17d1fcbe37bd32U, 0x3cf6a0c7be28df9aU,
  0xbcf3836ebcccff10U, 0xbe2fb70f3e528f8dU, 0x3d8bc10e3dc03b40U, 0xbd0c24923e05df81U,
  0xbd6fcca5be328a63U, 0xbe0f76fbbe607961U, 0x3d81f4d4be7748a0U, 0xbe11ca9e3e0bb7d3U,
  0x3d04f1d53df30226U, 0xbdbda904be25c1a6U, 0xbdb8da17bd6fbad6U, 0xbeed145dbd3fd4acU,
  0x3e206bd7be80c61eU, 0xbd116326be18130aU, 0x3caa0033bb61c650U, 0x3cc24bb7bc0f9a1fU,
  0xbe1fa4083eb483ffU, 0x3d3ddab9bddca32eU, 0x3db536423ce13026U, 0xbe2cc533bdfa5045U,
  0x3e38da1abe78e80aU, 0xbd521cd3be5783cfU, 0xbd62f7ed3bd67971U, 0xbe83158c3c8cf4f1U,
  0xbd6b9cd2bc1f95e3U, 0xbea2b15bbd060b0fU, 0xbd0a67693e67f212U, 0x3e2184b03d543dd5U,
  0xbe10a6ab3da3a8c4U, 0xbe4825573ebcf329U, 0xbe26dc1cbe319720U, 0x3e75464abdf0c0d2U,
  0x3e0a43d53c97c230U, 0xbebea97ebe691e45U, 0x3ced9edbbdeaf893U, 0x3e2dc4f13e07e6ffU,
  0xbe081cb3bda9fb25U, 0xbd068ac23e3377f1U, 0xbe2534a43e40b19eU, 0x3c4fba433cf95559U,
  0x3c324020bd8897d2U, 0x3e1f8f5f3c9ba819U, 0xbe63b7c2be644dbdU, 0x3d56b970bdb29110U,
  0x3dabc74cbe63607bU, 0x3e0f632abe2da5c9U, 0xbbff781b3ddd94f3U, 0xbd76212fbc10e1fbU,
  0x3e86c6ccbd1a8a97U, 0x3d635e9b3d0c5cc6U, 0x3d2bffe3bb2c2954U, 0xbd72f2dd3dcc0795U,
  0xbd7efff63df52167U, 0x3d195bc13d708f49U, 0x3ed091033d91a514U, 0xbd1da3833dccfcdfU,
  0xbe5b5ceebd49f471U, 0xbe243a6cbd7c4f9cU, 0xbdf5448f3d0693fdU, 0xbd2a76a03e7e8ef4U,
  0x3d376178be14bee1U, 0x3d709c1abe0cf949U, 0x3c2ce9ed3df0eb42U, 0x3e6c52a73e4494edU,
  0xbe699e4fbedd1a8aU, 0xbbe2c3b8be067cd2U, 0xbdd2af653de38a4cU, 0x3e56984a3dc00237U,
  0xbc32c51dbdaadfdcU, 0xbc13d2fabe625892U, 0x3e043643bd8f58acU, 0x3c4dbe073e73bad6U,
  0x3ec34bb13b787ea3U, 0xbc8b6dfb3da00826U, 0x3da5dab2bdb960e8U, 0x3c75f88ebd958a37U,
  0x3e09dd35bd0d440aU, 0xbe717148bc914798U, 0x3da44fc23dd1220bU, 0x3cd1cf243d397bf0U,
  0xbe352541be1c2a00U, 0xbdc8ce33be677b2fU, 0xbe37d320bcad491dU, 0xbde482b9bc9c6e09U,
  0x3df56bfabde68c7aU, 0x3d279e903e1ea880U, 0x3d2c31c2be078437U, 0x3df48ed4bc43d6a5U,
  0xbdb9def4bd57f31cU, 0x3e0013efbe48a94dU, 0x3e595b5a3cc7128fU, 0xbdf120a7be6bc12eU,
  0xbddb3f9ebe62cda1U, 0xbd4ddfcebce1ba71U, 0x3d77944a3ecc460eU, 0x3e2d0e72be85b333U,
  0xbec91bf6be892ba5U, 0xbcabd314bd19ce4cU, 0xbd7a7a54bea9543dU, 0x3e11594bbc1cde41U,
  0x3c80a7d03d8c435aU, 0x3d93fd7bbd85f0e5U, 0x3ddb37c9bbc61c28U, 0xbc83a7ec3a1075b5U,
  0x3e30d14bbcce9ac4U, 0xbe0b3b773e2ba565U, 0x3c32bcb13beec3cbU, 0xbe1d449bbdb32876U,
  0x3e50f65ebd5a6d6fU, 0x3c94853c3d8206c0U, 0xbb7a4dc8bcc13297U, 0x3ca46c033bb52a74U,
  0x3d381fa13e18f8d3U, 0x3cb8c62abe69c32cU, 0xbdeba2ec3d4c7c21U, 0xbd95f8e1bcdc65a4U,
  0x3dc80c153d7ef7e9U, 0x3d3fe59c3d75c0feU, 0xbe8c858dbe76597dU, 0xbde544b9bcd40939U,
  0x3eb175c9bca789c6U, 0xbea8daa0bc190a15U, 0x3da08f1fbe01941aU, 0xbd68820c3db5c5f2U,
  0x3e2006103d2facb2U, 0x3c3265c83daddad8U, 0x3e4cffdd3bee7a62U, 0x3e0a5dc9be2679caU,
  0xbc343a37bc18814bU, 0xbe314b5e3e84858aU, 0xbbf60451bd26f3cfU, 0x3e073bebbc11c82cU,
  0xbed0262abe04b323U, 0x3dc1edd63db3ce33U, 0x3ddbc8593dfcc03bU, 0xbd8538fa3d99b248U,
  0xbda767a63cbdd562U, 0x3e31488a3e0cbfc5U, 0x3cf55f8abdc759dfU, 0x3d89546a3dfad341U,
  0xbe1684b53db786e9U, 0xbd08490bbdd689c2U, 0xbe0dd3fabe086351U, 0xbdcfca71bdb8b026U,
  0xbe531ae8be0ff3a3U, 0xbe7e1a973c441cfbU, 0xbdaa9d96be17c115U, 0x3dcfae71bd36afb3U,
  0x3e2e2748bddbef7cU, 0x3e1ca4683e02ffebU, 0xbdb08330bdc19dc2U, 0xbe58ce2a3d6f7fa0U,
  0x3dc16a0abc780daeU, 0x3d597a50bdc158ceU, 0xbc93b0f4be038492U, 0x3cba38bdbd6791deU,
  0xbdcbc6bb3e6b4e62U, 0x3da1a2323e17924aU, 0x3e011c903df0da99U, 0x3e14c4193e67e4b6U,
  0x3dd59453bcc3e982U, 0x3da04befbdb17a2dU, 0x3e1e3acdbb82f2cdU, 0xbe4f262abe17fe49U,
  0x3e3f116cbca31d07U, 0x3d23df513e7dfd2eU, 0xbc848e6f3d95f688U, 0xbd81d0953e11fe75U,
  0xbd26a04c3e8f9b6eU, 0xbe745aaf3d1c335dU, 0x3e59ca54bd68c008U, 0xbd0002b63e8f79b2U,
  0xbceb91073ab23228U, 0xbd641874be2f9c0eU, 0xbdaf58f43ec81e88U, 0xbd8e87a23d070e10U,
  0x3d391636bc8abf42U, 0xbbc6b4343e0bd483U, 0xbdede8133de392b0U, 0xbcd53add3cb2ba31U,
  0xbe6093f63d265ff3U, 0x3e457183bea2e9d8U, 0x3db741343d951715U, 0x3da87d963e18e452U,
  0x3d4ab757be98ae8eU, 0x3cf9c7f43cfcc693U, 0xbde5832d3b8b6befU, 0xbde805a0be895eceU,
  0x3e1175dcbd86b484U, 0xbdd57f10bd048d53U, 0xbe46c6adbd53bd5aU, 0xbe1f9acabdb69c65U,
  0xbcc0c3af3d9ab0f6U, 0xbec3b2a13cf9257bU, 0xbd78cf9abe08c314U, 0x3d931829be073947U,
  0xbdd41b9bbe5b4088U, 0xbe20f5aebdcc6311U, 0x3d31ea503e5cc514U, 0x3e22c295be3db83fU,
  0x3e0361e0bd83f967U, 0x3e0180253c773850U, 0x3e0c9db13db699faU, 0x3daf212bbe09be74U,
  0xbd162055be5b7cf2U, 0xbe44e1723da8a2bdU, 0xbc9f30afbe024f0bU, 0xbe6724d8bddd6139U,
  0xbddff6eb3d980eb6U, 0xbd31a0393d953456U, 0x3d27385e3beb9702U, 0xbc2478013ea792c2U,
  0x3d297691bd8fadc7U, 0x3d9a6961bdb31475U, 0x3de724113d3af928U, 0x3dd63d15bd934ed3U,
  0x3e6efc8b3e212774U, 0x3e49fc70bcc34d64U, 0xbdae33393dc8f86eU, 0x3ba245483dff2d04U,
  0xbd80cc87bcbcbbceU, 0xbdb24bf8bc819106U, 0xbcc9190bbd21307aU, 0x3dd7f567be271962U,
  0xbde6753b3c6460c9U, 0x3e059baebe65dd3aU, 0xbdac7840bc785470U, 0x3e181854bd0f6fadU,
  0x3cfd45bfbe38f760U, 0x3e42b96ebd8625dbU, 0x3dab9c6ebd2e3055U, 0x3e18a38dbd8269b9U,
  0xbd8e15843c955e74U, 0xbe0cf1b6bdaa599eU, 0x3db2cd4ebddec640U, 0x3bfea0f33d16a958U,
  0x3e0107e33c1c6887U, 0x3d22784d3d8cda2dU, 0x3e45228abdc670dbU, 0xbd8f479f3e5e1768U,
  0x3b0999e33d71dbfcU, 0xbd63e5f13d771716U, 0xbc0237aebd2bf1e0U, 0xbe96258abdd7aa61U,
  0x3e8306793bac3679U, 0x3c8f618fbdf24862U, 0x3e40967bbec5b7deU, 0xbdbf2ac83e0823d1U,
  0xbd9acd553e0b723fU, 0x3dc81793be2857bfU, 0xbd95a4943d0f95c2U, 0x3d0bb01ebd8b2252U,
  0xbc88d8503d816d98U, 0x3d752b6abe099b69U, 0xbecd39073d5d93e5U, 0xbe276a0abe0c674dU,
  0xbe8e44663d4c047aU, 0xbcf6b9a1be6e287dU, 0x3c94afc93bb48befU, 0x3e5d0cdc3e4c8ce1U,
  0x3daf636dbd10cff0U, 0x3e527ab2bdec613eU, 0x3e5ba89bbd919fdcU, 0xbd872bf33dcf7b36U,
  0x3e213b553c57183eU, 0x3cfb70793e243b16U, 0x3e32df343d26eb24U, 0xbd51dac1bf072749U,
  0x3e9060e6bdcff9e9U, 0xbd7327fd3e480c59U, 0xbd46d7123cb9be28U, 0x3e782c183d094fc9U,
  0x3e1f0dc33dab1bb3U, 0xbdad383d3c93dc2dU, 0x3c8c80a1bd8d679cU, 0xbdf82c29bd477fa5U,
  0xbe166c0d3df552caU, 0xbe4ef90f3e28b2ecU, 0xbd0fec5b3d502621U, 0xbe6b9af4bde0a7d8U,
  0xbe1dacefbe26767fU, 0xbdbc57bbbde676feU, 0xbe392cc53de7b12cU, 0xbcd1fbdbbbe772f1U,
  0x3e05fe5dbe986828U, 0x3c9de9703a9483d0U, 0xbdcf3551bea9930eU, 0x3e215de9bbf7ac92U,
  0xbeaa82133db70be2U, 0x3e9743973dee6c0dU, 0xbcbb755b3d2b3174U, 0x3c857d0abdd7211aU,
  0xbd842d8fbde73d40U, 0x3eaeca373e54bd64U, 0x3b62a13bbda866d7U, 0xbd3355f03bef2c70U,
  0x3e9eb5a2be3eed53U, 0x3cf4f7803ec67957U, 0xbaf4b1623dd183f1U, 0x3cbae51e3d49bbdbU,
  0xbdd136593e4a696aU, 0xbe655db6be5ce319U, 0xbe23e5d4be4f6caeU, 0xbdde7d0d3d49446bU,
  0xbda8dbc2be869351U, 0x3e2d5ef7bdd8f875U, 0xbd835c52bdb304b3U, 0x3e54384e3e1b133eU,
  0x3e2e14273dd83da0U, 0x3d2a73b1be00a911U, 0x3b16001cbe1d7625U, 0x3e04cc5abde13538U,
  0x3de366763c46218dU, 0xbd6ea70abde0feebU, 0x3e55c1433d638354U, 0x3e4aa843bca6aad7U,
  0x3e28253e3e1a97afU, 0xbd85d8dc3d1783a9U, 0x3c61821ebdac9183U, 0xbd525a3dbec6bbd7U,
  0x3cf549703da6fba0U, 0x3c4da1ca3e05396bU, 0x3da770d6bc704202U, 0xbe160ccbbe013eb4U,
  0xb9ad9071bd948934U, 0xbe1032323e9ebbd9U, 0x3e51ae043da37effU, 0xbe2e33013e0dcc7aU,
  0x3ea5ec393dc1301fU, 0xbd4157f5be034dccU, 0x3dd7beb0bd84c7daU, 0xbdaa7ce5be038e46U,
  0x3dbddd2ebe2bb2f1U, 0xbd0f2e643d7c5d92U, 0xbd2ed112be49be41U, 0xbc1948543dcd9568U,
  0x3d996881bc0317cdU, 0xbd948dbbbe9e1f03U, 0xbe1233863e109cb7U, 0xbccdf043bdaf9a41U,
  0xbe37e98a3e435128U, 0xbdaad48ebd2a5615U, 0x3d4bf1c93e7f3b34U, 0xbc8f2522be98da23U,
  0x3cf519a0bebadbbcU, 0x3e100c503e26a82aU, 0xbd5ddaf23e10f02fU, 0xbe522278bcf29c1dU,
  0x3e6e74b83d6d0f68U, 0xbe41fdfebe548448U, 0x3d3f018abe428857U, 0x3d97c81cbe6620c7U,
  0xbe39e15fbd03f08bU, 0xbd97561ebc472eabU, 0x3e43dccbbce37536U, 0xbe9486b1bdfd2c9aU,
  0x3e9f80ef3d3dc599U, 0xbe952daebe499c6cU, 0x3d8e4f193d6cfc5eU, 0xbd5050e13e289aedU,
  0xbd0928363e2b6897U, 0x3dd718903d920a05U, 0xbd6688fabeb64be7U, 0xbde2e515be0aa52dU,
  0x3c00c85a3e719e77U, 0xbdf2eef7bd9001acU, 0xbd785495bea5a8d4U, 0x3e98c5cbbd5117d7U,
  0xbe7b22c3be64a0a5U, 0xbd242fd13e2d2342U, 0x3e167276bc17d525U, 0xbc82a134bec0d1a3U,
  0x3dfb5e533e617d25U, 0x3cb280f23e9c2522U, 0xbde5ac61bbdc92f1U, 0x3de84aeb3c2ad65fU,
  0xbe274cfdbdffdff5U, 0xbe520488bdc24c8aU, 0xbd4fc915be134d2fU, 0x3d46a951bbced0b6U,
  0xbd863765be4c9daaU, 0x3d5e33583e500d43U, 0xbdfd56fb3da6ab6fU, 0x3cbce2d53cfe99eaU,
  0x3e2466fb3db27f26U, 0xbd98faf93dbae087U, 0x3e9e0271be5a7bddU, 0xbd64c384bd3ffdcbU,
  0xbd52b8523df13e1fU, 0x3e1003d03df3a5e3U, 0x3c67b330bc123261U, 0x3e5a91b63e1092e6U,
  0x3dbae62c3dfb0485U, 0x3e9ddef8bd32053bU, 0xbe1572693d6bd44bU, 0x3daf4b7b3e014504U,
  0xbdc229983af79c1bU, 0x3df820e83d5553b6U, 0xbca47ee2bd95fbf3U, 0xbe4dd497be835947U,
  0xbdeea587be8371a5U, 0xbd801d3a3dbe405cU, 0xbeb6c2413bb2d032U, 0xbd9fb3e7be979b94U,
  0x3e0d993b3c6957c9U, 0xbd8e1b8b3e0f12f5U, 0x3e065d70bc47f351U, 0xbe137b43bd3b2fe5U,
  0xbd5176613e04da5dU, 0xbe5b5258be5588faU, 0x3d28d787bd2bdb40U, 0x3d16be363d7670b6U,
  0x3deed47e3de7c0d9U, 0x3bec49573b0de455U, 0xbd0a6873bd4f70bbU, 0x3d1f10b3be1ee8a8U,
  0x3d4a8d4cbd31cad7U, 0xbc40333abdd26a86U, 0x3c4626bfbe67020bU, 0x3c845b10be5d384aU,
  0x3de70a623ed2aa77U, 0xbe19991abe3fca24U, 0xbe7405a7bdb23d0dU, 0x3bdca0c83cc42405U,
  0x3e1da8183ceea32aU, 0xbdc49469bdc62861U, 0xbdb48fd2be488298U, 0x3e62db293d0a73b1U,
  0xbca18b1c3e21c8d3U, 0x3e287ed73cb4dd68U, 0x3e5b4c933e40cf6bU, 0xbe2aee41be52118bU,
  0xbe114808bce53a28U, 0x3da49a463da21e2cU, 0xbe2c52cdbe40ec5cU, 0x3d9145d4bdb2b0acU,
  0xbe1a6462be067db1U, 0xbe21edcf3da2c681U, 0xbd43eadebd2a14e4U, 0xbe737eeabe7039e0U,
  0x3da79e0b3c3f8c96U, 0xbc319a453d5007eeU, 0xbda458fabdcf21c2U, 0x3e7fb3443daecd3fU,
  0xbb5a3e9a3d8d9dfeU, 0xbe37658cbec52078U, 0xbdd5962d3eb26daeU, 0xbd36958b3e192c4cU,
  0xbe0a03cebdf74a5fU, 0x3e1986563baec301U, 0x3dcf3e45bdde12f4U, 0xbe053109be0aaaedU,
  0xbdb7f06ebe889b62U, 0x3cbf7e893e5f5731U, 0x3e109745be11db4cU, 0xbd8584393d4364b8U,
  0xbe257eadbe48b45eU, 0x3c89bd473e2954b2U, 0xbca9066b3d84a95eU, 0xbe651bedb9cade0cU,
  0xbd89ee85be724c55U, 0x3e573992bb1959d9U, 0xbe0d4e9fbddd325fU, 0xbe1c2c11bd3b5c0cU,
  0x3e1c6ad1bdaa92cdU, 0xbe4edbc4bde08276U, 0xbe55d2543d8e8e8bU, 0x3c5901bd3e264266U,
  0xbe8043533e3b3890U, 0xbce1d6edbe7543beU, 0xbcf5996e3e11cc70U, 0x3e2051f0be6dd963U,
  0x3e35a70fbc463b82U, 0x3de8425e3e04b89aU, 0xbd16a067beaed4f6U, 0xbac09ba83e25797bU,
  0xbe0c3f7ebdcea072U, 0x3d031e7a3d7a8177U, 0xbe0c41abbdbc0465U, 0xbe1e5dfb3da9021fU,
  0xbdbe03ff3d985752U, 0xbe1a5029be87a42cU, 0xbe5d77dc3da0f833U, 0xbd1e723dbe1df75fU,
  0xbe11bcf1bddb22a1U, 0x3d7bdaeebd94ad9eU, 0x3e6a6b15bc0389d4U, 0xbda6e2a3bd73da9dU,
  0x3d49a0efbe690933U, 0xbe379003bd446995U, 0x3e13bb7ebe0b49c5U, 0x3d8e7810ba824a4aU,
  0x3d90f426bd815808U, 0xbeaf3ad3bd566b37U, 0x3dc08e7d3de05cc1U, 0xbc2963fabe02cf1bU,
  0x3d590fd83d914e9cU, 0x389151e33d8fbffdU, 0xbe41a2003e92137eU, 0xbe0fb6f9be40706dU,
  0x3e3471c6be3b3621U, 0x3e04c2e73e83b8b7U, 0xbe6068ad3d67a5e8U, 0x3e27e47dbda0a526U,
  0xbe5d73a1bdea2beaU, 0xbd80586abe204e9dU, 0xbc5133d7bcf84a0dU, 0xbe59be00bb5b0df7U,
  0xbe38c081be933940U, 0xbe91e441bdc6b710U, 0xbe8c7ccdbee718f7U, 0xbe4726ea3d587c27U,
  0x3da81a22bcba0cc5U, 0xbbf4ff19bc8d36bfU, 0x3d70592bbe98fc82U, 0xbd1c2a33be53989cU,
  0xbe244a3cbdc1490cU, 0xb80c616ebe813a03U, 0xbe3499d1be4a4dabU, 0xbd874819bef1f3e6U,
  0xbd97478abd641eebU, 0x3dfb8df9be6bae4fU, 0xbe9dffbfbdfe1fc7U, 0x3db94c7b3de94b0fU,
  0x3be7380f3e3744b7U, 0xbd155875bc94fabeU, 0xbdd5184f3d5faab8U, 0x3c59d462be8554acU,
  0xbdfc14563e101605U, 0x3dc0faf13e27b5e2U, 0x3db481e63d2c2d5eU, 0x3d8c96b7be8f68bbU,
  0xbe578efb3e80d791U, 0x3bfac659bdbe6738U, 0xbcf8fcf3bdaa4427U, 0x3e2409b2bca49149U,
  0x3d7433b8bdef5d8cU, 0xbe0426b0be3ccf6aU, 0x3e1850e7be818686U, 0xbdf3a4783dc2eb58U,
  0x3e91b193be55d522U, 0xbd1b316c3d1ed6cfU, 0x3d014e6a3d862d0dU, 0xbd609bea3ea7b84bU,
  0x3d6712393d794719U, 0x3ccbe6033dc8baa2U, 0xbd58c8c9bde32f0aU, 0xbdc32aa1be46bb95U,
  0x3d01afc33e019a51U, 0xbdadb1813d7db808U, 0x3c8fef4cbe1f104cU, 0x3e96755a3ea2e087U,
  0xbc509e62be85ea02U, 0x3c0015a1bd62a310U, 0x3d692ca9bd1af827U, 0xbe1da4bcbc926d6dU,
  0x3e80c39dbd97c05bU, 0x3d8ba6a2bd9966daU, 0x3dd359103d4a19c6U, 0x3e0610863d668358U,
  0xbd29ff5fbcea5148U, 0x3b4f51b63b408a53U, 0x3bc8bfdabe09d82eU, 0xbb8e2ef13cf74d18U,
  0xbe2fe2da3c82b464U, 0xbde219f83c5cfcdfU, 0xbdad047d3ce84d76U, 0x3e2fedd1be1279e1U,
  0xbdcc4429bd3dc86aU, 0x3ce71be23d031c4cU, 0x3e319216bc87ce5fU, 0x3df9e8df3ef52130U,
  0xbe7935c7be30be45U, 0xbdb2ed1c3dcfaae7U, 0x3e8c581fbd037c71U, 0xbde998ecbd3b6703U,
  0xbe07c6853c067016U, 0x3e0613bd3e192180U, 0x3e5ecabbbe08de83U, 0xbddf707b3d54584dU,
  0x3d777ff13d13c595U, 0x3c602207bea4d308U, 0xbe029d6bbc6a846fU, 0xbd6ffb543e02c5d1U,
  0x3c0e101f3d07d121U, 0x3e128c4b3c62c4ccU, 0xbdfffcc53c49f347U, 0x3e1c83603e6bb94aU,
  0x3dc0852abd49dd19U, 0x3c869c133d1b3af2U, 0xbe24c7593e1d0121U, 0x3e46bb30bd6abd2cU,
  0xbd044ec53d0aec1fU, 0x3bb690343c28e7c4U, 0xbe442897becda415U, 0xbc5064dabe335dceU,
  0xbe96c1bcbbb3b705U, 0xbdc4c68ebda53d7aU, 0xbdd91fddbd28cd20U, 0x3cea1007bd2ca27aU,
  0x3e4142d63e71962cU, 0x3e6e94883d960868U, 0xbe9839dfbbee26b1U, 0xbd7067893ccc76d7U,
  0xbdbc717b3eb5fb3aU, 0xbc9b78873e3547a2U, 0x3dd584b23de675a7U, 0xbdfa4f8b3e006c76U,
  0xbd28bd59bc0627f8U, 0xbdb392b7bc809abeU, 0xbe45a6b1bd0687e8U, 0xbd8a9eb9be8a3e2cU,
  0xbe56969d3c001341U, 0x3d6de109bcc887f8U, 0x3e3503ccbdda9efcU, 0x3b8e1e493d40ea7bU,
  0xbd2ca9433de1a611U, 0x3e17f5343ddb63a6U, 0x3e06efd73e426910U, 0x3e9be8a3bd264332U,
  0xbd4920bf3daa393aU, 0xbcc34787be07ccbfU, 0x3d71cfe3bd554732U, 0x38d0177e3d4d33edU,
  0x3d61ef4c3cf629f8U, 0xbe96cdc9be6917ebU, 0xbdaaba983cd412c9U, 0xbe02787bbe97ac79U,
  0x3e1b0abe3c149f15U, 0xbc1794533b863ac3U, 0xbe81cdc6bd5e24c4U, 0xbe82fc8dbccf3c0aU,
  0x3e821018bc8d7210U, 0x3e4dfe1cbdedf260U, 0x3d629f5f3d2ae4b2U, 0x3b0daa2d3e03237bU,
  0xbe1493143d5461abU, 0xbe92d737be0d94e6U, 0xbdc9a1b93cf0e171U, 0xbdd5accdbd86c90bU,
  0xbe1aa46abeac6bc0U, 0xbe6a196abe76e698U, 0xbdd044f33c438c85U, 0xbd9bf3f4bcc7f0e7U,
  0x3d5e2035bcb02d33U, 0x3d0c10f33d6f12faU, 0x3de584293e1b42d0U, 0x3e7f3541bebeaf4bU,
  0x3c4270833ee25510U, 0x3dd87e33bd9112d7U, 0x3d5633d23dc48394U, 0xbb480d603de29f3bU,
  0xbce1a2c6bd4d4439U, 0x3e1bc1b43de98d34U, 0xbe815aa0be2f99d1U, 0x3e6e6cd9bcccc30cU,
  0x3e134800be09e7ebU, 0x3d820757bd7be7f5U, 0xbd216b1ebe27f2f4U, 0xbd8c39a83cbe505cU,
  0xbdfc9becbd9276ceU, 0xbde27b2a3d08e294U, 0xbe8c8b0abe726592U, 0x3d6992afbe4b6539U,
  0xbebcecb43dee69aeU, 0xbe62cff6bddbf64fU, 0x3e1770fc3d7c65c1U, 0x3bf116e93ce1c444U,
  0xbdbef9b33cb381a4U, 0x3c9bf90b3e0aa482U, 0x3db5a5353d98f47aU, 0xbdf03ebb3e4b34bbU,
  0xbe13e65d3cd88ab7U, 0xbcf7de7fbe265448U, 0x3c61e6733dfe0a00U, 0xbb8a6f273da84616U,
  0xbd0d63b33d031e15U, 0x3d410bc7be577a4fU, 0x3db131a93e315f0eU, 0x3d9526ddbe1ab427U,
  0xbe2c6b87bec22ee1U, 0xbe190b45be3c9fb6U, 0xbec060793d84abd3U, 0x3d92dde8bdf95468U,
  0x3e8ca536be087b29U, 0x3e3e3205be0bbc96U, 0xbef5cea9be2161f2U, 0x3da68ebdbe62474eU,
  0xbe458b7a3ded3181U, 0xbdd17acebe30f0e6U, 0x3d94415dbde0945bU, 0x3ccfc1263e8bb1f5U,
  0x3e3d383a3ce88729U, 0xbbf7abd7bc3476a8U, 0xbdec2e103e81c97eU, 0xbe300df73d76ec67U,
  0x3e1a87483c616ef2U, 0xbe3744193dccbc47U, 0x3d34458abaa32030U, 0xbd6214633e37ad4dU,
  0xbd7c48693e362c39U, 0xbe5aa231be29f7f8U, 0xbe91cacf3d9218b2U, 0xbdb6c3093db88b65U,
  0x3deec2fabc60df3cU, 0x3e024057bc9e3e1eU, 0x3da30b3abe37f216U, 0x3ccde0b23ceb3f45U,
  0xbd1d4ca53c7f6380U, 0xbda202ec3d5f16f5U, 0x3db076c6bd8a22f8U, 0xbe01876fbdc004c4U,
  0x3ddc3417be411213U, 0xbe7a7fa23c4a9e97U, 0x3d6120803e84fc4fU, 0xbdaadababe0a5329U,
  0x3e7d2c01bd26260bU, 0xbd9afef23caa0a11U, 0x3e4e5ed13c090722U, 0xbcab4d5e3dd3670dU,
  0x3df2f468bca2a6dcU, 0x3dcba90c3c5155e1U, 0x3e07588abde882d4U, 0xbe194f9ebe9bd964U,
  0xbe0d4818bd66e8bbU, 0xbe065962be17dc74U, 0xbdd45e9cbdd2838eU, 0x3dd32cf5bd06ce0eU,
  0xbe4e8a40be39d4d8U, 0xbe0f555a3d0f1dfaU, 0xbed5a606be075896U, 0x3e61ecb0bed1ebe5U,
  0xbbb516e6bdc1d599U, 0xbe210678bda0564bU, 0x3d302efbbe796262U, 0xbbd776bfbcf0f1ccU,
  0xbcfae2d2be02ac28U, 0xbd525cce3e40dd81U, 0xbda447cbbe2a7839U, 0x3df0cc67be9b3774U,
  0xbe0c1a543e65a304U, 0xbcbce003be20fc01U, 0x3b06ca753dff2492U, 0x3d61b85dbe5accd4U,
  0x3e124a7cbd6dfa8bU, 0xbe6ede273d99c55cU, 0xbe165ab23db7a6fbU, 0x3e1ca72fbd7d6cfbU,
  0x3e53a0743e2755b5U, 0x3d1f7dcd3d8395afU, 0x3e146379bd8915beU, 0x3e24c14e3c002fbcU,
  0xbdccaaea3e3c9e2cU, 0xbd9f4a34bec6c5e9U, 0x3c8c1ebe3d81df3eU, 0x3de421ac3e08d067U,
  0x3df7bc8d3e555006U, 0xbe8d0946bd896adfU, 0x3e3f86533d008345U, 0x3e1ea58d3d88ddfcU,
  0xbe2e55803d59ecb6U, 0xbd0013f03e1fc3e9U, 0xbca5c473bdd034f4U, 0xbe5db6dbbe628c29U,
  0x3e693073bd152465U, 0xbe393205bd341315U, 0xbdfb9a49be518275U, 0xbdce3da6bdf2e14eU,
  0xbd8fe74e3d6c5048U, 0xbe431c7cbe432291U, 0x3e77e2c0be7af810U, 0x3cb794863c04e303U,
  0x3e1e64903d17be5eU, 0x3e1a9e663d330f8bU, 0x3cf01d033defb22eU, 0x3df4a0ca3d1c20b6U,
  0x3d675cfe3e4cb6a9U, 0xbe42edf6bdbcef77U, 0xbdda092dbe8296ccU, 0xbdf71e53bda8e7abU,
  0x3e8f9a74bdd7092cU, 0xbe16c2c53d45b6ffU, 0xbe0a234d3e2e6155U, 0xbd1a358bbe372e2bU,
  0x3e23d6fbba7fd62fU, 0x3db3b9793e0a5652U, 0xbd2c98903db46452U, 0xbdeb3a863df8591cU,
  0xbbadfb7c3e9d18b2U, 0x3e5f44c0bd5ef5e6U, 0x3e9d3f4d3e07e4e9U, 0x3d446533bd554e2aU,
  0xbe2484ebbe5d3221U, 0xbd30febebda114e1U, 0xbeb35addbe60705cU, 0x3d1694033e1e1665U,
  0x3e931281bd51c450U, 0xbcf5d0d03be4f111U, 0xbe062c9b3dc31b45U, 0xbd61d8963d951f8cU,
  0xbe0bcdd6bd78ca61U, 0xbdebb7ed3e2564e8U, 0x3d37d56c3d8df1acU, 0xbddb98dfbd77900eU,
  0xbe2879f3bdd8c2abU, 0x3ce5bd433d9dae9eU, 0xbe3617c43e5097ecU, 0x3dc9cbb33e029579U,
  0x3e19c19d3e512541U, 0x3e40a7d3bcfc2b2fU, 0xbdc8ac213e483db7U, 0xbe5803b5bd52944cU,
  0x3e6dc426bce58f0fU, 0xbec65b57380776d6U, 0x3e281904bde2c521U, 0x3e69c82b3d4f8806U,
  0xb9b354073e8b2145U, 0xbc89215cbd8d7fa6U, 0xbcd346973d56e481U, 0xbd1a2ab2bdbd0310U,
  0xbe58bebabd912d6aU, 0xbb61ef303d873b3bU, 0xbe3b90c73e9f6d24U, 0x3db98e35bd031362U,
  0x3dab14e7bda41b61U, 0xbe19b7a1be943de9U, 0xbe9ca142be9b57b6U, 0xbe0d5b1f3dc6b3abU,
  0xbcda23583d1ad236U, 0xbda052f1be5c4ce6U, 0xbc1aa2dabe36bf05U, 0xbd525616bcf9fda1U,
  0xbe3d1ee13d62fcb6U, 0x3defa239bc962b9fU, 0xbe0b3d213dce4f78U, 0x3e624dbb3e69dc34U,
  0x3d92fa23bd0ddbdaU, 0x3e16aa293e3c3364U, 0x3daa7ff6be3ef5f6U, 0xbe7c3e81bdead14bU,
  0x3d833e8bbcd7fb11U, 0x3e06d4cfbdac757dU, 0x3e49fa8abdf6f77eU, 0xbe5090993f0fa951U,
  0xbe175d6d3d889808U, 0xbdce070a3cd97661U, 0xbe77eb0e3e44a89eU, 0x3c1ab358bdbb0630U,
  0xbc98375f3e3f0d64U, 0xbdad56ec3df8f370U, 0x3dfe37fdbbe9c8c1U, 0xbd04736cbdf3548dU,
  0xbe7bcb16bd916612U, 0x3c3f1ea93c34185eU, 0x3c483ded3d9f11b8U, 0xbd8dddf3bdbb1453U,
  0x3d471735be12e6faU, 0x3d921b233e0405e9U, 0xbe09ce31bc68321cU, 0xbe8309e1bde0ac0dU,
  0xbdb8756cbe136eb1U, 0x3e5fd4c23e9a5043U, 0xbe4699673dbb1350U, 0x3d3501603e14ec14U,
  0x3dae364fbe8b737cU, 0x3da76adf3e4e3392U, 0xbec83a81be52f480U, 0xbe5e907c3d8c94acU,
  0x3dc3ae9f3d32fa18U, 0x3cef9873bdaf42c8U, 0x3dcc70703c9a7642U, 0xbe18d0203de38d47U,
  0xbc2fdbd3bd165f1fU, 0xbd873d1fbe133546U, 0x3d92564c3d8f0fbeU, 0x3cb563f0be335edbU,
  0xbe3944e8bcb470b6U, 0xbe1644b1be0cb0f2U, 0xbd19c81ebe15ff69U, 0xbe13aedebdedb768U,
  0x3d5acbe1be8884b3U, 0xbe84f454be32879eU, 0x3e1fe6bcbddabe84U, 0xbe70c922be96560fU,
  0x3e06db97bcce272dU, 0xbda5f280bc1fb87cU, 0xbe3ca0db3d95afffU, 0xbe26dc8dbe909dcbU,
  0x3e1834f7bdff1e6fU, 0x3d8fb3e63e312b1fU, 0xbd0259cd3df82af3U, 0xbc8f57a739b70029U,
  0x3e16c96a3bed3876U, 0xbc023dec3e79c644U, 0x3e2040283e0e6cadU, 0x3cbed2c13d5c8aa7U,
  0x3dfa9c96bdee8c80U, 0xbc9ba0ebbae788aaU, 0xbda107c33c426a85U, 0xbe09e80fbe6e73c0U,
  0x3dcaf5c93d51ede2U, 0xbdf507563df389baU, 0xbead2622be880f71U, 0x3e0075c0bdd06621U,
  0xbe9d47be3e0e57e0U, 0xbe0d2ba0bd8c7679U, 0xbd008a17be2606b2U, 0xbe8958ddbd6b6dd7U,
  0x3e459c35bdbb293dU, 0x3bd41ae73d0a23e5U, 0xbd2e8cdc3bb90dfcU, 0xbdd24bf53bda956dU,
  0xbd6489ffbe15831aU, 0x3e0c6b523ce796e6U, 0x3cc4231d3ea4e9b5U, 0xbe4e4e5dbe0d0976U,
  0xbd6ced2abd0c33b6U, 0x3c4dab19bdba1c91U, 0xbdb67233bbf320a2U, 0x3c503cb43dec791eU,
  0xbcd39a723d81920bU, 0xbe2004073cafed8eU, 0xbe313f973bfb62caU, 0xbe70345abe2feea6U,
  0x3d8956d2bd8d28f3U, 0x3d4214563cbb3efcU, 0x3e448acdbde8bf83U, 0xbda9aa7e3e8b24dbU,
  0x3e068f9dbe518f93U, 0xbda602f6beebb485U, 0x3d617489be0977ffU, 0xbdf1c89bbe8303f2U,
  0x3e0d5c313ecb0c2aU, 0x3eb31a47bc076565U, 0xbddf89d63d1da28dU, 0xbc972559bdfa8a73U,
  0xbd4e63b8bcb55241U, 0x3dd6ee58be043a62U, 0x3cb8b0633e784ebfU, 0xbe223d113e1a44e7U,
  0x3d7203f1bd3f3563U, 0xbd295799bda8bc41U, 0xbe3f6a0bbe220db9U, 0x3ca593cfbd8e07d9U,
  0x3d9dec7a3defc7ceU, 0xbe0f8327bdd112a9U, 0x3e8190cfbd9a8d7bU, 0x3e8ed06d3df08e15U,
  0x3e1919d43e7a24f0U, 0x3cb2d8463dd941caU, 0x3d047096bd3c2d49U, 0xbdef09003e67d04cU,
  0x3d760381bcc8c76cU, 0x3d8a2a59be02c2b4U, 0x3da09dd7be8efc82U, 0xbd86dd763e0232c5U,
  0xbdfecb1c3b06e608U, 0xbd2b647f3d39223cU, 0xbdd668a4be750871U, 0xbd3c52a53ecc0441U,
  0xbe49d380be4a61c9U, 0xbe3484053dd1a94dU, 0xbd25f881bc84d0b7U, 0x3d5b741dbd92db66U,
  0xbe83f063be327859U, 0xbde702083cea7500U, 0x3e31570a3e1594a8U, 0x3e2e1695bcba982aU,
  0x3e1c0345bce4bdc0U, 0x3d7208863e33c127U, 0x3e375cf7bdf183cfU, 0xbe13dbe03d845a9eU,
  0x3e9480133e6f1b0eU, 0xbdb359e1b83bc499U, 0xbda10049bd9b1bdcU, 0x3c30cc8bbe88e544U,
  0xbe5f52ddbdf539e2U, 0xbdc8a6a7be31febbU, 0x3e4da56ebe097fbeU, 0xbd0e1541bb170562U,
  0xbdf7ec17be46f84cU, 0x3e2144a6be5f290eU, 0x3e6a60b4be24076aU, 0x3e54ca34bd0d071bU,
  0xbe8b04fb3e50b251U, 0x3e80244c3eb3ba93U, 0xbd4c4ee63e1911daU, 0x3cb7de71bd0601a7U,
  0xbd9904d2be440ecaU, 0x3da2bbc73c94fa6eU, 0x3e7dcc44bd458533U, 0x3db14a903e15b407U,
  0xbe250f1d3d720e1eU, 0x3c75b1d5bdebad13U, 0xbde9c0a3be8f5047U, 0x3d0c3b60bd726b76U,
  0x3d9c3047bd277dacU, 0x3e5ccf613eadf671U, 0xbe091657bdef50f8U, 0xbe14a648be091b96U,
  0xba989764bcb12cd5U, 0xbd77d7c93df6f700U, 0xbc3e19743de741dcU, 0x3decc3ff3e8e3c45U,
  0xbdbf0d3c3ccf2efdU, 0x3e2cff6f3d80f535U, 0x3ca31636be071513U, 0xbd04b32a3dd79794U,
